{
  "version": "1.0",
  "truncation": null,
  "padding": null,
  "added_tokens": [
    {
      "id": 0,
      "content": "[UNK]",
      "single_word": false,
      "lstrip": false,
      "rstrip": false,
      "normalized": false,
      "special": true
    },
    {
      "id": 1,
      "content": "[PAD]",
      "single_word": false,
      "lstrip": false,
      "rstrip": false,
      "normalized": false,
      "special": true
    },
    {
      "id": 2,
      "content": "[CLS]",
      "single_word": false,
      "lstrip": false,
      "rstrip": false,
      "normalized": false,
      "special": true
    },
    {
      "id": 3,
      "content": "[SEP]",
      "single_word": false,
      "lstrip": false,
      "rstrip": false,
      "normalized": false,
      "special": true
    },
    {
      "id": 4,
      "content": "[MASK]",
      "single_word": false,
      "lstrip": false,
      "rstrip": false,
      "normalized": false,
      "special": true
    }
  ],
  "normalizer": null,
  "pre_tokenizer": {
    "type": "Whitespace"
  },
  "post_processor": {
    "type": "TemplateProcessing",
    "single": [
      {
        "SpecialToken": {
          "id": "[CLS]",
          "type_id": 0
        }
      },
      {
        "Sequence": {
          "id": "A",
          "type_id": 0
        }
      },
      {
        "SpecialToken": {
          "id": "[SEP]",
          "type_id": 0
        }
      }
    ],
    "pair": [
      {
        "SpecialToken": {
          "id": "[CLS]",
          "type_id": 0
        }
      },
      {
        "Sequence": {
          "id": "A",
          "type_id": 0
        }
      },
      {
        "SpecialToken": {
          "id": "[SEP]",
          "type_id": 0
        }
      },
      {
        "Sequence": {
          "id": "B",
          "type_id": 1
        }
      },
      {
        "SpecialToken": {
          "id": "[SEP]",
          "type_id": 1
        }
      }
    ],
    "special_tokens": {
      "[CLS]": {
        "id": "[CLS]",
        "ids": [
          2
        ],
        "tokens": [
          "[CLS]"
        ]
      },
      "[SEP]": {
        "id": "[SEP]",
        "ids": [
          3
        ],
        "tokens": [
          "[SEP]"
        ]
      }
    }
  },
  "decoder": null,
  "model": {
    "type": "WordPiece",
    "unk_token": "[UNK]",
    "continuing_subword_prefix": "##",
    "max_input_chars_per_word": 100,
    "vocab": {
      "[UNK]": 0,
      "[PAD]": 1,
      "[CLS]": 2,
      "[SEP]": 3,
      "[MASK]": 4,
      "0": 5,
      "1": 6,
      "2": 7,
      "3": 8,
      "4": 9,
      "5": 10,
      "6": 11,
      "7": 12,
      "8": 13,
      "9": 14,
      "\\": 15,
      "": 16,
      "": 17,
      "": 18,
      "": 19,
      "": 20,
      "¡": 21,
      "¢": 22,
      "£": 23,
      "¤": 24,
      "¥": 25,
      "¦": 26,
      "§": 27,
      "¨": 28,
      "©": 29,
      "ª": 30,
      "«": 31,
      "¬": 32,
      "®": 33,
      "°": 34,
      "±": 35,
      "²": 36,
      "³": 37,
      "´": 38,
      "µ": 39,
      "¶": 40,
      "·": 41,
      "¸": 42,
      "¹": 43,
      "º": 44,
      "»": 45,
      "¼": 46,
      "½": 47,
      "¾": 48,
      "¿": 49,
      "À": 50,
      "Á": 51,
      "Â": 52,
      "Ä": 53,
      "Å": 54,
      "Æ": 55,
      "Ç": 56,
      "È": 57,
      "É": 58,
      "Ê": 59,
      "Ë": 60,
      "Ì": 61,
      "Í": 62,
      "Î": 63,
      "Ï": 64,
      "Ñ": 65,
      "Ò": 66,
      "Ó": 67,
      "Ô": 68,
      "Õ": 69,
      "Ö": 70,
      "×": 71,
      "Ø": 72,
      "Ù": 73,
      "Ú": 74,
      "Û": 75,
      "Ü": 76,
      "Ý": 77,
      "Þ": 78,
      "ß": 79,
      "à": 80,
      "á": 81,
      "â": 82,
      "ã": 83,
      "ä": 84,
      "å": 85,
      "æ": 86,
      "ç": 87,
      "è": 88,
      "é": 89,
      "ê": 90,
      "ë": 91,
      "ì": 92,
      "í": 93,
      "î": 94,
      "ï": 95,
      "ð": 96,
      "ñ": 97,
      "ò": 98,
      "ó": 99,
      "ô": 100,
      "õ": 101,
      "ö": 102,
      "÷": 103,
      "ø": 104,
      "ù": 105,
      "ú": 106,
      "û": 107,
      "ü": 108,
      "ý": 109,
      "þ": 110,
      "ÿ": 111,
      "Ā": 112,
      "ā": 113,
      "ă": 114,
      "ą": 115,
      "ć": 116,
      "Č": 117,
      "č": 118,
      "ď": 119,
      "Đ": 120,
      "đ": 121,
      "Ē": 122,
      "ē": 123,
      "ę": 124,
      "ě": 125,
      "ĝ": 126,
      "ğ": 127,
      "Ġ": 128,
      "ġ": 129,
      "ħ": 130,
      "ĩ": 131,
      "Ī": 132,
      "ī": 133,
      "ĭ": 134,
      "İ": 135,
      "ı": 136,
      "ĺ": 137,
      "ľ": 138,
      "Ł": 139,
      "ł": 140,
      "ń": 141,
      "ņ": 142,
      "ŋ": 143,
      "Ō": 144,
      "ō": 145,
      "ŏ": 146,
      "Ő": 147,
      "ő": 148,
      "Œ": 149,
      "œ": 150,
      "ř": 151,
      "Ś": 152,
      "ś": 153,
      "Ş": 154,
      "ş": 155,
      "Š": 156,
      "š": 157,
      "ţ": 158,
      "ũ": 159,
      "ū": 160,
      "ŭ": 161,
      "ź": 162,
      "ż": 163,
      "ž": 164,
      "ſ": 165,
      "Ə": 166,
      "Ɛ": 167,
      "ƒ": 168,
      "ƚ": 169,
      "ơ": 170,
      "ƣ": 171,
      "ư": 172,
      "ƶ": 173,
      "ǁ": 174,
      "ǎ": 175,
      "ǐ": 176,
      "ǒ": 177,
      "ǔ": 178,
      "ǜ": 179,
      "Ǧ": 180,
      "ǧ": 181,
      "ǵ": 182,
      "ȃ": 183,
      "ș": 184,
      "ț": 185,
      "ȟ": 186,
      "ȯ": 187,
      "ɐ": 188,
      "ɑ": 189,
      "ɒ": 190,
      "ɔ": 191,
      "ɕ": 192,
      "ɖ": 193,
      "ɗ": 194,
      "ə": 195,
      "ɛ": 196,
      "ɜ": 197,
      "ɟ": 198,
      "ɡ": 199,
      "ɢ": 200,
      "ɣ": 201,
      "ɥ": 202,
      "ɦ": 203,
      "ɨ": 204,
      "ɪ": 205,
      "ɫ": 206,
      "ɬ": 207,
      "ɭ": 208,
      "ɮ": 209,
      "ɯ": 210,
      "ɰ": 211,
      "ɲ": 212,
      "ɳ": 213,
      "ɴ": 214,
      "ɵ": 215,
      "ɹ": 216,
      "ɻ": 217,
      "ɽ": 218,
      "ɾ": 219,
      "ʀ": 220,
      "ʁ": 221,
      "ʂ": 222,
      "ʃ": 223,
      "ʄ": 224,
      "ʈ": 225,
      "ʉ": 226,
      "ʊ": 227,
      "ʋ": 228,
      "ʌ": 229,
      "ʎ": 230,
      "ʏ": 231,
      "ʐ": 232,
      "ʑ": 233,
      "ʒ": 234,
      "ʔ": 235,
      "ʕ": 236,
      "ʧ": 237,
      "ʰ": 238,
      "ʱ": 239,
      "ʲ": 240,
      "ʷ": 241,
      "ʻ": 242,
      "ʼ": 243,
      "ʽ": 244,
      "ʾ": 245,
      "ʿ": 246,
      "ˀ": 247,
      "ˁ": 248,
      "ˈ": 249,
      "ˌ": 250,
      "ː": 251,
      "ˑ": 252,
      "˚": 253,
      "ˡ": 254,
      "ˤ": 255,
      "˦": 256,
      "˨": 257,
      "ˮ": 258,
      "̀": 259,
      "́": 260,
      "̂": 261,
      "̃": 262,
      "̄": 263,
      "̅": 264,
      "̆": 265,
      "̇": 266,
      "̈": 267,
      "̋": 268,
      "̌": 269,
      "̍": 270,
      "̓": 271,
      "̣": 272,
      "̤": 273,
      "̥": 274,
      "̧": 275,
      "̩": 276,
      "̪": 277,
      "̯": 278,
      "̰": 279,
      "̱": 280,
      "̲": 281,
      "̺": 282,
      "̽": 283,
      "͈": 284,
      "͗": 285,
      "͘": 286,
      "͜": 287,
      "͡": 288,
      "΄": 289,
      "Ά": 290,
      "Ό": 291,
      "Α": 292,
      "Β": 293,
      "Γ": 294,
      "Δ": 295,
      "Ε": 296,
      "Ζ": 297,
      "Η": 298,
      "Θ": 299,
      "Ι": 300,
      "Κ": 301,
      "Λ": 302,
      "Μ": 303,
      "Ν": 304,
      "Ξ": 305,
      "Ο": 306,
      "Π": 307,
      "Ρ": 308,
      "΢": 309,
      "Σ": 310,
      "Τ": 311,
      "Υ": 312,
      "Φ": 313,
      "Χ": 314,
      "Ψ": 315,
      "Ω": 316,
      "ά": 317,
      "έ": 318,
      "ή": 319,
      "ί": 320,
      "ΰ": 321,
      "α": 322,
      "β": 323,
      "γ": 324,
      "δ": 325,
      "ε": 326,
      "ζ": 327,
      "η": 328,
      "θ": 329,
      "ι": 330,
      "κ": 331,
      "λ": 332,
      "μ": 333,
      "ν": 334,
      "ξ": 335,
      "ο": 336,
      "π": 337,
      "ρ": 338,
      "ς": 339,
      "σ": 340,
      "τ": 341,
      "υ": 342,
      "φ": 343,
      "χ": 344,
      "ψ": 345,
      "ω": 346,
      "ό": 347,
      "ύ": 348,
      "ώ": 349,
      "ϑ": 350,
      "ϕ": 351,
      "Ϝ": 352,
      "Ϣ": 353,
      "Ϥ": 354,
      "Ϧ": 355,
      "ϧ": 356,
      "Ϩ": 357,
      "ϩ": 358,
      "Ϫ": 359,
      "Ϭ": 360,
      "Ϯ": 361,
      "ϯ": 362,
      "ϰ": 363,
      "ϱ": 364,
      "ϴ": 365,
      "ϵ": 366,
      "Ё": 367,
      "Є": 368,
      "І": 369,
      "Ї": 370,
      "Ј": 371,
      "А": 372,
      "Б": 373,
      "В": 374,
      "Г": 375,
      "Д": 376,
      "Е": 377,
      "Ж": 378,
      "З": 379,
      "И": 380,
      "Й": 381,
      "К": 382,
      "Л": 383,
      "М": 384,
      "Н": 385,
      "О": 386,
      "П": 387,
      "Р": 388,
      "С": 389,
      "Т": 390,
      "У": 391,
      "Ф": 392,
      "Х": 393,
      "Ц": 394,
      "Ч": 395,
      "Ш": 396,
      "Щ": 397,
      "Ь": 398,
      "Э": 399,
      "Ю": 400,
      "Я": 401,
      "а": 402,
      "б": 403,
      "в": 404,
      "г": 405,
      "д": 406,
      "е": 407,
      "ж": 408,
      "з": 409,
      "и": 410,
      "й": 411,
      "к": 412,
      "л": 413,
      "м": 414,
      "н": 415,
      "о": 416,
      "п": 417,
      "р": 418,
      "с": 419,
      "т": 420,
      "у": 421,
      "ф": 422,
      "х": 423,
      "ц": 424,
      "ч": 425,
      "ш": 426,
      "щ": 427,
      "ъ": 428,
      "ы": 429,
      "ь": 430,
      "э": 431,
      "ю": 432,
      "я": 433,
      "ѐ": 434,
      "ё": 435,
      "і": 436,
      "ї": 437,
      "ј": 438,
      "љ": 439,
      "ћ": 440,
      "ќ": 441,
      "ў": 442,
      "Ѣ": 443,
      "ѣ": 444,
      "Ґ": 445,
      "ғ": 446,
      "ҙ": 447,
      "Қ": 448,
      "қ": 449,
      "Ҝ": 450,
      "ҝ": 451,
      "Ҡ": 452,
      "ҡ": 453,
      "ң": 454,
      "Ү": 455,
      "ү": 456,
      "ұ": 457,
      "ҳ": 458,
      "ҷ": 459,
      "ҹ": 460,
      "Һ": 461,
      "һ": 462,
      "Ӏ": 463,
      "ӏ": 464,
      "Ә": 465,
      "ә": 466,
      "Ӝ": 467,
      "ӝ": 468,
      "Ӟ": 469,
      "ӟ": 470,
      "ӣ": 471,
      "Ӥ": 472,
      "ӥ": 473,
      "Ӧ": 474,
      "ӧ": 475,
      "Ө": 476,
      "ө": 477,
      "Ӵ": 478,
      "ӵ": 479,
      "Ա": 480,
      "Բ": 481,
      "Գ": 482,
      "Ե": 483,
      "Զ": 484,
      "Է": 485,
      "Լ": 486,
      "Կ": 487,
      "Ղ": 488,
      "Մ": 489,
      "Ս": 490,
      "Տ": 491,
      "Փ": 492,
      "Օ": 493,
      "ա": 494,
      "բ": 495,
      "դ": 496,
      "ե": 497,
      "ի": 498,
      "լ": 499,
      "խ": 500,
      "կ": 501,
      "հ": 502,
      "ղ": 503,
      "ճ": 504,
      "մ": 505,
      "յ": 506,
      "ն": 507,
      "շ": 508,
      "ո": 509,
      "պ": 510,
      "ս": 511,
      "վ": 512,
      "տ": 513,
      "ր": 514,
      "ւ": 515,
      "փ": 516,
      "ք": 517,
      "ֆ": 518,
      "֗": 519,
      "ְ": 520,
      "ֲ": 521,
      "ִ": 522,
      "ֵ": 523,
      "ֶ": 524,
      "ַ": 525,
      "ָ": 526,
      "ֹ": 527,
      "ּ": 528,
      "־": 529,
      "ׁ": 530,
      "א": 531,
      "ב": 532,
      "ג": 533,
      "ד": 534,
      "ה": 535,
      "ו": 536,
      "ז": 537,
      "ח": 538,
      "ט": 539,
      "י": 540,
      "ך": 541,
      "כ": 542,
      "ל": 543,
      "ם": 544,
      "מ": 545,
      "ן": 546,
      "נ": 547,
      "ס": 548,
      "ע": 549,
      "ף": 550,
      "פ": 551,
      "צ": 552,
      "ק": 553,
      "ר": 554,
      "ש": 555,
      "ת": 556,
      "،": 557,
      "؟": 558,
      "ء": 559,
      "آ": 560,
      "أ": 561,
      "ؤ": 562,
      "إ": 563,
      "ئ": 564,
      "ا": 565,
      "ب": 566,
      "ة": 567,
      "ت": 568,
      "ث": 569,
      "ج": 570,
      "ح": 571,
      "خ": 572,
      "د": 573,
      "ذ": 574,
      "ر": 575,
      "ز": 576,
      "س": 577,
      "ش": 578,
      "ص": 579,
      "ض": 580,
      "ط": 581,
      "ظ": 582,
      "ع": 583,
      "غ": 584,
      "ـ": 585,
      "ف": 586,
      "ق": 587,
      "ك": 588,
      "ل": 589,
      "م": 590,
      "ن": 591,
      "ه": 592,
      "و": 593,
      "ى": 594,
      "ي": 595,
      "ً": 596,
      "ٌ": 597,
      "ٍ": 598,
      "َ": 599,
      "ُ": 600,
      "ِ": 601,
      "ّ": 602,
      "ْ": 603,
      "ٓ": 604,
      "ٗ": 605,
      "٘": 606,
      "ٛ": 607,
      "٠": 608,
      "١": 609,
      "٣": 610,
      "٥": 611,
      "٨": 612,
      "٭": 613,
      "ٰ": 614,
      "ٱ": 615,
      "ٲ": 616,
      "ٹ": 617,
      "ٽ": 618,
      "پ": 619,
      "ڀ": 620,
      "چ": 621,
      "ڈ": 622,
      "ډ": 623,
      "ڊ": 624,
      "ڌ": 625,
      "ڑ": 626,
      "ڔ": 627,
      "ڗ": 628,
      "ژ": 629,
      "ڙ": 630,
      "ښ": 631,
      "ڠ": 632,
      "ک": 633,
      "ڪ": 634,
      "ڬ": 635,
      "گ": 636,
      "ڹ": 637,
      "ں": 638,
      "ڻ": 639,
      "ھ": 640,
      "ڿ": 641,
      "ہ": 642,
      "ۂ": 643,
      "ۃ": 644,
      "ۇ": 645,
      "ۋ": 646,
      "ی": 647,
      "ۍ": 648,
      "ې": 649,
      "ے": 650,
      "ە": 651,
      "ۡ": 652,
      "۲": 653,
      "ۺ": 654,
      "ۻ": 655,
      "ۼ": 656,
      "ܐ": 657,
      "ܒ": 658,
      "ܓ": 659,
      "ܕ": 660,
      "ܗ": 661,
      "ܘ": 662,
      "ܙ": 663,
      "ܚ": 664,
      "ܛ": 665,
      "ܝ": 666,
      "ܟ": 667,
      "ܠ": 668,
      "ܡ": 669,
      "ܢ": 670,
      "ܣ": 671,
      "ܥ": 672,
      "ܦ": 673,
      "ܩ": 674,
      "ܪ": 675,
      "ܫ": 676,
      "ܬ": 677,
      "ܰ": 678,
      "ܲ": 679,
      "ܳ": 680,
      "ܵ": 681,
      "ܼ": 682,
      "މ": 683,
      "ލ": 684,
      "ާ": 685,
      "ެ": 686,
      "ँ": 687,
      "ं": 688,
      "ः": 689,
      "अ": 690,
      "आ": 691,
      "इ": 692,
      "ई": 693,
      "उ": 694,
      "ऊ": 695,
      "ऋ": 696,
      "ए": 697,
      "ऐ": 698,
      "ऑ": 699,
      "ओ": 700,
      "औ": 701,
      "क": 702,
      "ख": 703,
      "ग": 704,
      "घ": 705,
      "ङ": 706,
      "च": 707,
      "छ": 708,
      "ज": 709,
      "झ": 710,
      "ञ": 711,
      "ट": 712,
      "ठ": 713,
      "ड": 714,
      "ढ": 715,
      "ण": 716,
      "त": 717,
      "थ": 718,
      "द": 719,
      "ध": 720,
      "न": 721,
      "प": 722,
      "फ": 723,
      "ब": 724,
      "भ": 725,
      "म": 726,
      "य": 727,
      "र": 728,
      "ल": 729,
      "ळ": 730,
      "व": 731,
      "श": 732,
      "ष": 733,
      "स": 734,
      "ह": 735,
      "़": 736,
      "ऽ": 737,
      "ा": 738,
      "ि": 739,
      "ी": 740,
      "ु": 741,
      "ू": 742,
      "ृ": 743,
      "ॄ": 744,
      "ॅ": 745,
      "ॆ": 746,
      "े": 747,
      "ै": 748,
      "ॉ": 749,
      "ॊ": 750,
      "ो": 751,
      "ौ": 752,
      "्": 753,
      "ॐ": 754,
      "॑": 755,
      "॒": 756,
      "ॠ": 757,
      "।": 758,
      "॥": 759,
      "०": 760,
      "१": 761,
      "२": 762,
      "८": 763,
      "॰": 764,
      "ঁ": 765,
      "ং": 766,
      "অ": 767,
      "আ": 768,
      "ই": 769,
      "ঈ": 770,
      "উ": 771,
      "ও": 772,
      "ক": 773,
      "খ": 774,
      "গ": 775,
      "ঘ": 776,
      "ঙ": 777,
      "চ": 778,
      "ছ": 779,
      "জ": 780,
      "ঝ": 781,
      "ট": 782,
      "ঠ": 783,
      "ড": 784,
      "ঢ": 785,
      "ণ": 786,
      "ত": 787,
      "থ": 788,
      "দ": 789,
      "ধ": 790,
      "ন": 791,
      "প": 792,
      "ফ": 793,
      "ব": 794,
      "ভ": 795,
      "ম": 796,
      "য": 797,
      "র": 798,
      "ল": 799,
      "শ": 800,
      "ষ": 801,
      "স": 802,
      "হ": 803,
      "়": 804,
      "া": 805,
      "ি": 806,
      "ী": 807,
      "ু": 808,
      "ূ": 809,
      "ৃ": 810,
      "ে": 811,
      "ৈ": 812,
      "ো": 813,
      "ৌ": 814,
      "্": 815,
      "ৎ": 816,
      "ৰ": 817,
      "ৱ": 818,
      "৳": 819,
      "ਂ": 820,
      "ਅ": 821,
      "ਆ": 822,
      "ਇ": 823,
      "ਈ": 824,
      "ਉ": 825,
      "ਏ": 826,
      "ਓ": 827,
      "ਕ": 828,
      "ਖ": 829,
      "ਗ": 830,
      "ਘ": 831,
      "ਚ": 832,
      "ਛ": 833,
      "ਜ": 834,
      "ਝ": 835,
      "ਟ": 836,
      "ਠ": 837,
      "ਡ": 838,
      "ਢ": 839,
      "ਣ": 840,
      "ਤ": 841,
      "ਥ": 842,
      "ਦ": 843,
      "ਧ": 844,
      "ਨ": 845,
      "ਪ": 846,
      "ਫ": 847,
      "ਬ": 848,
      "ਭ": 849,
      "ਮ": 850,
      "ਯ": 851,
      "ਰ": 852,
      "ਲ": 853,
      "ਵ": 854,
      "ਸ": 855,
      "ਹ": 856,
      "਼": 857,
      "ਾ": 858,
      "ਿ": 859,
      "ੀ": 860,
      "ੁ": 861,
      "ੂ": 862,
      "ੇ": 863,
      "ੈ": 864,
      "ੋ": 865,
      "ੌ": 866,
      "੍": 867,
      "ੜ": 868,
      "ੰ": 869,
      "ੱ": 870,
      "ં": 871,
      "અ": 872,
      "આ": 873,
      "ઇ": 874,
      "ક": 875,
      "ખ": 876,
      "ગ": 877,
      "ઘ": 878,
      "ચ": 879,
      "છ": 880,
      "જ": 881,
      "ઝ": 882,
      "ટ": 883,
      "ઠ": 884,
      "ડ": 885,
      "ણ": 886,
      "ત": 887,
      "થ": 888,
      "દ": 889,
      "ધ": 890,
      "ન": 891,
      "પ": 892,
      "ફ": 893,
      "બ": 894,
      "ભ": 895,
      "મ": 896,
      "ય": 897,
      "ર": 898,
      "લ": 899,
      "ળ": 900,
      "વ": 901,
      "શ": 902,
      "ષ": 903,
      "સ": 904,
      "હ": 905,
      "ા": 906,
      "િ": 907,
      "ી": 908,
      "ુ": 909,
      "ૂ": 910,
      "ૅ": 911,
      "ે": 912,
      "ો": 913,
      "્": 914,
      "ଂ": 915,
      "ଅ": 916,
      "ଆ": 917,
      "ଇ": 918,
      "ଉ": 919,
      "ଓ": 920,
      "କ": 921,
      "ଗ": 922,
      "ଚ": 923,
      "ଜ": 924,
      "ଟ": 925,
      "ଡ": 926,
      "ଣ": 927,
      "ତ": 928,
      "ଥ": 929,
      "ଦ": 930,
      "ଧ": 931,
      "ନ": 932,
      "ପ": 933,
      "ବ": 934,
      "ମ": 935,
      "ଯ": 936,
      "ର": 937,
      "ଲ": 938,
      "ଳ": 939,
      "ଶ": 940,
      "ସ": 941,
      "ହ": 942,
      "଼": 943,
      "ା": 944,
      "ି": 945,
      "ୀ": 946,
      "ୁ": 947,
      "ୂ": 948,
      "େ": 949,
      "ୌ": 950,
      "୍": 951,
      "ୟ": 952,
      "அ": 953,
      "ஆ": 954,
      "இ": 955,
      "ஈ": 956,
      "உ": 957,
      "ஊ": 958,
      "எ": 959,
      "ஏ": 960,
      "ஐ": 961,
      "ஒ": 962,
      "ஓ": 963,
      "ஔ": 964,
      "க": 965,
      "ங": 966,
      "ச": 967,
      "ஜ": 968,
      "ஞ": 969,
      "ட": 970,
      "ண": 971,
      "த": 972,
      "ந": 973,
      "ன": 974,
      "ப": 975,
      "ம": 976,
      "ய": 977,
      "ர": 978,
      "ற": 979,
      "ல": 980,
      "ள": 981,
      "ழ": 982,
      "வ": 983,
      "ஷ": 984,
      "ஸ": 985,
      "ஹ": 986,
      "ா": 987,
      "ி": 988,
      "ீ": 989,
      "ு": 990,
      "ூ": 991,
      "ெ": 992,
      "ே": 993,
      "ை": 994,
      "ொ": 995,
      "ோ": 996,
      "ௌ": 997,
      "்": 998,
      "ం": 999,
      "అ": 1000,
      "ఆ": 1001,
      "ఇ": 1002,
      "ఉ": 1003,
      "ఒ": 1004,
      "క": 1005,
      "ఖ": 1006,
      "గ": 1007,
      "ఘ": 1008,
      "ఙ": 1009,
      "చ": 1010,
      "ఛ": 1011,
      "జ": 1012,
      "ఝ": 1013,
      "ఞ": 1014,
      "ట": 1015,
      "ఠ": 1016,
      "డ": 1017,
      "ఢ": 1018,
      "ణ": 1019,
      "త": 1020,
      "థ": 1021,
      "ద": 1022,
      "ధ": 1023,
      "న": 1024,
      "ప": 1025,
      "ఫ": 1026,
      "బ": 1027,
      "భ": 1028,
      "మ": 1029,
      "య": 1030,
      "ర": 1031,
      "ల": 1032,
      "ళ": 1033,
      "వ": 1034,
      "శ": 1035,
      "ష": 1036,
      "స": 1037,
      "హ": 1038,
      "ా": 1039,
      "ి": 1040,
      "ీ": 1041,
      "ు": 1042,
      "ూ": 1043,
      "ృ": 1044,
      "ె": 1045,
      "ే": 1046,
      "ై": 1047,
      "ొ": 1048,
      "ో": 1049,
      "ౌ": 1050,
      "్": 1051,
      "౦": 1052,
      "ಂ": 1053,
      "ಅ": 1054,
      "ಆ": 1055,
      "ಇ": 1056,
      "ಉ": 1057,
      "ಎ": 1058,
      "ಒ": 1059,
      "ಕ": 1060,
      "ಖ": 1061,
      "ಗ": 1062,
      "ಘ": 1063,
      "ಚ": 1064,
      "ಜ": 1065,
      "ಟ": 1066,
      "ಠ": 1067,
      "ಡ": 1068,
      "ಣ": 1069,
      "ತ": 1070,
      "ಥ": 1071,
      "ದ": 1072,
      "ಧ": 1073,
      "ನ": 1074,
      "ಪ": 1075,
      "ಫ": 1076,
      "ಬ": 1077,
      "ಭ": 1078,
      "ಮ": 1079,
      "ಯ": 1080,
      "ರ": 1081,
      "ಲ": 1082,
      "ಳ": 1083,
      "ವ": 1084,
      "ಶ": 1085,
      "ಷ": 1086,
      "ಸ": 1087,
      "ಹ": 1088,
      "ಾ": 1089,
      "ಿ": 1090,
      "ೀ": 1091,
      "ು": 1092,
      "ೂ": 1093,
      "ೃ": 1094,
      "ೆ": 1095,
      "ೇ": 1096,
      "ೈ": 1097,
      "ೊ": 1098,
      "ೋ": 1099,
      "ೌ": 1100,
      "್": 1101,
      "ം": 1102,
      "ഃ": 1103,
      "അ": 1104,
      "ആ": 1105,
      "ഇ": 1106,
      "ഈ": 1107,
      "ഉ": 1108,
      "ഊ": 1109,
      "ഋ": 1110,
      "ഌ": 1111,
      "എ": 1112,
      "ഏ": 1113,
      "ഐ": 1114,
      "ഒ": 1115,
      "ഓ": 1116,
      "ഔ": 1117,
      "ക": 1118,
      "ഖ": 1119,
      "ഗ": 1120,
      "ഘ": 1121,
      "ങ": 1122,
      "ച": 1123,
      "ഛ": 1124,
      "ജ": 1125,
      "ഝ": 1126,
      "ഞ": 1127,
      "ട": 1128,
      "ഠ": 1129,
      "ഡ": 1130,
      "ഢ": 1131,
      "ണ": 1132,
      "ത": 1133,
      "ഥ": 1134,
      "ദ": 1135,
      "ധ": 1136,
      "ന": 1137,
      "ഩ": 1138,
      "പ": 1139,
      "ഫ": 1140,
      "ബ": 1141,
      "ഭ": 1142,
      "മ": 1143,
      "യ": 1144,
      "ര": 1145,
      "റ": 1146,
      "ല": 1147,
      "ള": 1148,
      "ഴ": 1149,
      "വ": 1150,
      "ശ": 1151,
      "ഷ": 1152,
      "സ": 1153,
      "ഹ": 1154,
      "ഺ": 1155,
      "഼": 1156,
      "ഽ": 1157,
      "ാ": 1158,
      "ി": 1159,
      "ീ": 1160,
      "ു": 1161,
      "ൂ": 1162,
      "ൃ": 1163,
      "ൄ": 1164,
      "െ": 1165,
      "േ": 1166,
      "ൈ": 1167,
      "൉": 1168,
      "ൊ": 1169,
      "ോ": 1170,
      "ൌ": 1171,
      "്": 1172,
      "ൎ": 1173,
      "ൗ": 1174,
      "ൠ": 1175,
      "ൡ": 1176,
      "ൢ": 1177,
      "ൣ": 1178,
      "൦": 1179,
      "൧": 1180,
      "൨": 1181,
      "൩": 1182,
      "൪": 1183,
      "൫": 1184,
      "൬": 1185,
      "൭": 1186,
      "൮": 1187,
      "൯": 1188,
      "൰": 1189,
      "൹": 1190,
      "ൺ": 1191,
      "ൻ": 1192,
      "ർ": 1193,
      "ൽ": 1194,
      "ൾ": 1195,
      "ൿ": 1196,
      "ං": 1197,
      "අ": 1198,
      "ආ": 1199,
      "ඇ": 1200,
      "එ": 1201,
      "ක": 1202,
      "ග": 1203,
      "ඟ": 1204,
      "ජ": 1205,
      "ට": 1206,
      "ඩ": 1207,
      "ණ": 1208,
      "ත": 1209,
      "ද": 1210,
      "ධ": 1211,
      "න": 1212,
      "ප": 1213,
      "බ": 1214,
      "ම": 1215,
      "ය": 1216,
      "ර": 1217,
      "ල": 1218,
      "ව": 1219,
      "ස": 1220,
      "හ": 1221,
      "ළ": 1222,
      "්": 1223,
      "ා": 1224,
      "ැ": 1225,
      "ි": 1226,
      "ී": 1227,
      "ු": 1228,
      "ෙ": 1229,
      "ේ": 1230,
      "ො": 1231,
      "ෝ": 1232,
      "ก": 1233,
      "ข": 1234,
      "ค": 1235,
      "ง": 1236,
      "จ": 1237,
      "ฉ": 1238,
      "ช": 1239,
      "ซ": 1240,
      "ญ": 1241,
      "ฎ": 1242,
      "ฐ": 1243,
      "ฑ": 1244,
      "ณ": 1245,
      "ด": 1246,
      "ต": 1247,
      "ถ": 1248,
      "ท": 1249,
      "ธ": 1250,
      "น": 1251,
      "บ": 1252,
      "ป": 1253,
      "ผ": 1254,
      "พ": 1255,
      "ภ": 1256,
      "ม": 1257,
      "ย": 1258,
      "ร": 1259,
      "ล": 1260,
      "ว": 1261,
      "ศ": 1262,
      "ษ": 1263,
      "ส": 1264,
      "ห": 1265,
      "อ": 1266,
      "ฯ": 1267,
      "ะ": 1268,
      "ั": 1269,
      "า": 1270,
      "ำ": 1271,
      "ิ": 1272,
      "ี": 1273,
      "ึ": 1274,
      "ื": 1275,
      "ุ": 1276,
      "ู": 1277,
      "เ": 1278,
      "แ": 1279,
      "โ": 1280,
      "ใ": 1281,
      "ไ": 1282,
      "็": 1283,
      "่": 1284,
      "้": 1285,
      "์": 1286,
      "๏": 1287,
      "ກ": 1288,
      "ງ": 1289,
      "ຊ": 1290,
      "ຍ": 1291,
      "ດ": 1292,
      "ຕ": 1293,
      "ທ": 1294,
      "ນ": 1295,
      "ບ": 1296,
      "ພ": 1297,
      "ມ": 1298,
      "ຣ": 1299,
      "ລ": 1300,
      "ວ": 1301,
      "ສ": 1302,
      "ຫ": 1303,
      "ຮ": 1304,
      "ະ": 1305,
      "ັ": 1306,
      "າ": 1307,
      "ີ": 1308,
      "ູ": 1309,
      "ົ": 1310,
      "ຼ": 1311,
      "ເ": 1312,
      "ແ": 1313,
      "ໄ": 1314,
      "້": 1315,
      "ໍ": 1316,
      "་": 1317,
      "༌": 1318,
      "།": 1319,
      "ཀ": 1320,
      "ཁ": 1321,
      "ག": 1322,
      "ང": 1323,
      "ཇ": 1324,
      "ཏ": 1325,
      "ཐ": 1326,
      "ད": 1327,
      "ན": 1328,
      "པ": 1329,
      "ཕ": 1330,
      "བ": 1331,
      "མ": 1332,
      "ཚ": 1333,
      "ཞ": 1334,
      "འ": 1335,
      "ཡ": 1336,
      "ར": 1337,
      "ལ": 1338,
      "ཤ": 1339,
      "ས": 1340,
      "ི": 1341,
      "ུ": 1342,
      "ེ": 1343,
      "ོ": 1344,
      "ྐ": 1345,
      "ྒ": 1346,
      "ྟ": 1347,
      "ྤ": 1348,
      "ྫ": 1349,
      "ྱ": 1350,
      "ྲ": 1351,
      "ླ": 1352,
      "ྷ": 1353,
      "က": 1354,
      "ဂ": 1355,
      "င": 1356,
      "ဇ": 1357,
      "တ": 1358,
      "ထ": 1359,
      "န": 1360,
      "ပ": 1361,
      "ဗ": 1362,
      "ဘ": 1363,
      "မ": 1364,
      "ရ": 1365,
      "လ": 1366,
      "ဝ": 1367,
      "သ": 1368,
      "ါ": 1369,
      "ာ": 1370,
      "ိ": 1371,
      "ီ": 1372,
      "ု": 1373,
      "ူ": 1374,
      "ေ": 1375,
      "ံ": 1376,
      "း": 1377,
      "္": 1378,
      "်": 1379,
      "ျ": 1380,
      "ြ": 1381,
      "ွ": 1382,
      "ှ": 1383,
      "ა": 1384,
      "ბ": 1385,
      "გ": 1386,
      "დ": 1387,
      "ე": 1388,
      "ვ": 1389,
      "ზ": 1390,
      "თ": 1391,
      "ი": 1392,
      "კ": 1393,
      "ლ": 1394,
      "მ": 1395,
      "ნ": 1396,
      "ო": 1397,
      "პ": 1398,
      "ჟ": 1399,
      "რ": 1400,
      "ს": 1401,
      "ტ": 1402,
      "უ": 1403,
      "ფ": 1404,
      "ქ": 1405,
      "ღ": 1406,
      "ყ": 1407,
      "შ": 1408,
      "ჩ": 1409,
      "ც": 1410,
      "ძ": 1411,
      "წ": 1412,
      "ჭ": 1413,
      "ხ": 1414,
      "ჯ": 1415,
      "ჶ": 1416,
      "ሉ": 1417,
      "ማ": 1418,
      "ም": 1419,
      "ሠ": 1420,
      "ሥ": 1421,
      "ሩ": 1422,
      "ራ": 1423,
      "ር": 1424,
      "ሱ": 1425,
      "ሳ": 1426,
      "ሶ": 1427,
      "ሽ": 1428,
      "ቀ": 1429,
      "ባ": 1430,
      "ተ": 1431,
      "ቱ": 1432,
      "ት": 1433,
      "ነ": 1434,
      "ኒ": 1435,
      "ን": 1436,
      "ኛ": 1437,
      "አ": 1438,
      "ኢ": 1439,
      "ኣ": 1440,
      "እ": 1441,
      "ክ": 1442,
      "ኽ": 1443,
      "ያ": 1444,
      "ዮ": 1445,
      "ደ": 1446,
      "ዲ": 1447,
      "ግ": 1448,
      "ጥ": 1449,
      "ጵ": 1450,
      "ፋ": 1451,
      "ፍ": 1452,
      "፡": 1453,
      "ᐊ": 1454,
      "ᑕ": 1455,
      "ᑭ": 1456,
      "ᒃ": 1457,
      "ᒋ": 1458,
      "ᒡ": 1459,
      "ᓕ": 1460,
      "ᔪ": 1461,
      "ᕐ": 1462,
      "ᖅ": 1463,
      "គ": 1464,
      "ង": 1465,
      "ជ": 1466,
      "ដ": 1467,
      "ត": 1468,
      "ទ": 1469,
      "ន": 1470,
      "ព": 1471,
      "ភ": 1472,
      "ម": 1473,
      "យ": 1474,
      "រ": 1475,
      "ល": 1476,
      "វ": 1477,
      "ស": 1478,
      "ហ": 1479,
      "អ": 1480,
      "ឧ": 1481,
      "ា": 1482,
      "ិ": 1483,
      "ី": 1484,
      "ុ": 1485,
      "ូ": 1486,
      "ួ": 1487,
      "ៀ": 1488,
      "េ": 1489,
      "ែ": 1490,
      "ំ": 1491,
      "ះ": 1492,
      "័": 1493,
      "្": 1494,
      "៛": 1495,
      "ᠠ": 1496,
      "ᠢ": 1497,
      "ᠥ": 1498,
      "ᠦ": 1499,
      "ᠨ": 1500,
      "ᠭ": 1501,
      "ᠯ": 1502,
      "ᠰ": 1503,
      "ᠲ": 1504,
      "ᠶ": 1505,
      "ᠺ": 1506,
      "ᡠ": 1507,
      "ᡥ": 1508,
      "ᡳ": 1509,
      "ᨀ": 1510,
      "ᨆ": 1511,
      "ᨈ": 1512,
      "ᨑ": 1513,
      "ᨔ": 1514,
      "ᨚ": 1515,
      "ᮊ": 1516,
      "ᮒ": 1517,
      "ᮔ": 1518,
      "ᮕ": 1519,
      "ᮘ": 1520,
      "ᮙ": 1521,
      "ᮞ": 1522,
      "ᮤ": 1523,
      "ᮥ": 1524,
      "ᮦ": 1525,
      "᮪": 1526,
      "ᵊ": 1527,
      "ᵻ": 1528,
      "ḇ": 1529,
      "ḍ": 1530,
      "ḏ": 1531,
      "Ḗ": 1532,
      "ḗ": 1533,
      "ḡ": 1534,
      "Ḥ": 1535,
      "ḥ": 1536,
      "Ḫ": 1537,
      "ḷ": 1538,
      "ḻ": 1539,
      "ṁ": 1540,
      "ṃ": 1541,
      "ṅ": 1542,
      "ṇ": 1543,
      "ṉ": 1544,
      "ṓ": 1545,
      "ṛ": 1546,
      "ṟ": 1547,
      "Ṣ": 1548,
      "ṣ": 1549,
      "ṫ": 1550,
      "Ṭ": 1551,
      "ṭ": 1552,
      "ṯ": 1553,
      "ṳ": 1554,
      "Ẓ": 1555,
      "ẓ": 1556,
      "ẚ": 1557,
      "ạ": 1558,
      "ả": 1559,
      "ấ": 1560,
      "ầ": 1561,
      "ẩ": 1562,
      "ậ": 1563,
      "ắ": 1564,
      "ằ": 1565,
      "ặ": 1566,
      "ẻ": 1567,
      "ẽ": 1568,
      "ế": 1569,
      "ể": 1570,
      "ễ": 1571,
      "ệ": 1572,
      "ị": 1573,
      "ọ": 1574,
      "ỏ": 1575,
      "ố": 1576,
      "ồ": 1577,
      "ộ": 1578,
      "ớ": 1579,
      "ờ": 1580,
      "ở": 1581,
      "ợ": 1582,
      "ủ": 1583,
      "ứ": 1584,
      "ử": 1585,
      "ỳ": 1586,
      "ἀ": 1587,
      "ἁ": 1588,
      "ἄ": 1589,
      "ἆ": 1590,
      "Ἀ": 1591,
      "Ἁ": 1592,
      "Ἄ": 1593,
      "ἐ": 1594,
      "ἑ": 1595,
      "ἔ": 1596,
      "ἕ": 1597,
      "Ἐ": 1598,
      "Ἑ": 1599,
      "Ἕ": 1600,
      "ἡ": 1601,
      "ἤ": 1602,
      "ἰ": 1603,
      "ἱ": 1604,
      "ἲ": 1605,
      "ἶ": 1606,
      "Ἰ": 1607,
      "Ἵ": 1608,
      "ὀ": 1609,
      "ὁ": 1610,
      "ὄ": 1611,
      "ὅ": 1612,
      "Ὀ": 1613,
      "Ὅ": 1614,
      "ὐ": 1615,
      "ὑ": 1616,
      "ὔ": 1617,
      "ὕ": 1618,
      "Ὑ": 1619,
      "ὠ": 1620,
      "ὡ": 1621,
      "ὤ": 1622,
      "ὥ": 1623,
      "ὰ": 1624,
      "ὴ": 1625,
      "ὶ": 1626,
      "ᾠ": 1627,
      "ᾱ": 1628,
      "ᾶ": 1629,
      "ῆ": 1630,
      "ῑ": 1631,
      "ῖ": 1632,
      "ῡ": 1633,
      "ῥ": 1634,
      "ῦ": 1635,
      "ῳ": 1636,
      "ῶ": 1637,
      "​": 1638,
      "‌": 1639,
      "‍": 1640,
      "‎": 1641,
      "‏": 1642,
      "‐": 1643,
      "‑": 1644,
      "‒": 1645,
      "–": 1646,
      "—": 1647,
      "―": 1648,
      "‘": 1649,
      "’": 1650,
      "‛": 1651,
      "“": 1652,
      "”": 1653,
      "„": 1654,
      "‟": 1655,
      "†": 1656,
      "‡": 1657,
      "•": 1658,
      "…": 1659,
      "‪": 1660,
      "‬": 1661,
      "‭": 1662,
      "′": 1663,
      "″": 1664,
      "‹": 1665,
      "›": 1666,
      "⁄": 1667,
      "⁠": 1668,
      "⁰": 1669,
      "ⁱ": 1670,
      "ⁿ": 1671,
      "₁": 1672,
      "₂": 1673,
      "₃": 1674,
      "₤": 1675,
      "₨": 1676,
      "₪": 1677,
      "€": 1678,
      "₹": 1679,
      "℃": 1680,
      "ℓ": 1681,
      "℧": 1682,
      "ℳ": 1683,
      "⅓": 1684,
      "⅔": 1685,
      "⅝": 1686,
      "←": 1687,
      "↑": 1688,
      "→": 1689,
      "↗": 1690,
      "↪": 1691,
      "⇌": 1692,
      "⇔": 1693,
      "∂": 1694,
      "∆": 1695,
      "∇": 1696,
      "∈": 1697,
      "∉": 1698,
      "∎": 1699,
      "∏": 1700,
      "∑": 1701,
      "−": 1702,
      "∙": 1703,
      "√": 1704,
      "∝": 1705,
      "∞": 1706,
      "∠": 1707,
      "∩": 1708,
      "∪": 1709,
      "∫": 1710,
      "∴": 1711,
      "≈": 1712,
      "≠": 1713,
      "≡": 1714,
      "≤": 1715,
      "≥": 1716,
      "⊂": 1717,
      "⊃": 1718,
      "⊆": 1719,
      "⊙": 1720,
      "⋅": 1721,
      "⋆": 1722,
      "╥": 1723,
      "■": 1724,
      "□": 1725,
      "▪": 1726,
      "▷": 1727,
      "►": 1728,
      "▼": 1729,
      "◆": 1730,
      "●": 1731,
      "★": 1732,
      "☆": 1733,
      "☉": 1734,
      "☍": 1735,
      "☜": 1736,
      "☞": 1737,
      "☹": 1738,
      "☺": 1739,
      "☻": 1740,
      "♇": 1741,
      "♔": 1742,
      "♕": 1743,
      "♖": 1744,
      "♗": 1745,
      "♘": 1746,
      "♙": 1747,
      "♚": 1748,
      "♛": 1749,
      "♜": 1750,
      "♝": 1751,
      "♞": 1752,
      "♟": 1753,
      "♡": 1754,
      "♥": 1755,
      "♦": 1756,
      "♭": 1757,
      "⚀": 1758,
      "✤": 1759,
      "✴": 1760,
      "❤": 1761,
      "➤": 1762,
      "⟨": 1763,
      "⟩": 1764,
      "⠈": 1765,
      "⠎": 1766,
      "⠙": 1767,
      "⠰": 1768,
      "ⱨ": 1769,
      "ⱬ": 1770,
      "Ⲁ": 1771,
      "ⲁ": 1772,
      "ⲃ": 1773,
      "Ⲅ": 1774,
      "ⲅ": 1775,
      "ⲉ": 1776,
      "ⲏ": 1777,
      "Ⲑ": 1778,
      "ⲑ": 1779,
      "ⲓ": 1780,
      "ⲕ": 1781,
      "ⲗ": 1782,
      "Ⲙ": 1783,
      "ⲙ": 1784,
      "ⲛ": 1785,
      "ⲟ": 1786,
      "Ⲡ": 1787,
      "ⲡ": 1788,
      "Ⲣ": 1789,
      "ⲣ": 1790,
      "ⲥ": 1791,
      "Ⲧ": 1792,
      "ⲧ": 1793,
      "ⲩ": 1794,
      "Ⲫ": 1795,
      "Ⲭ": 1796,
      "ⲭ": 1797,
      "ⲱ": 1798,
      "ⴰ": 1799,
      "ⴷ": 1800,
      "ⵉ": 1801,
      "ⵍ": 1802,
      "ⵏ": 1803,
      "ⵓ": 1804,
      "ⵔ": 1805,
      "ⵙ": 1806,
      "ⵟ": 1807,
      "、": 1808,
      "。": 1809,
      "々": 1810,
      "《": 1811,
      "》": 1812,
      "】": 1813,
      "あ": 1814,
      "い": 1815,
      "う": 1816,
      "え": 1817,
      "お": 1818,
      "か": 1819,
      "き": 1820,
      "ぎ": 1821,
      "く": 1822,
      "ぐ": 1823,
      "け": 1824,
      "こ": 1825,
      "さ": 1826,
      "ざ": 1827,
      "し": 1828,
      "せ": 1829,
      "た": 1830,
      "だ": 1831,
      "ち": 1832,
      "っ": 1833,
      "つ": 1834,
      "て": 1835,
      "と": 1836,
      "な": 1837,
      "に": 1838,
      "ぬ": 1839,
      "の": 1840,
      "は": 1841,
      "ひ": 1842,
      "び": 1843,
      "ま": 1844,
      "み": 1845,
      "め": 1846,
      "も": 1847,
      "や": 1848,
      "ゆ": 1849,
      "ょ": 1850,
      "よ": 1851,
      "ら": 1852,
      "り": 1853,
      "る": 1854,
      "れ": 1855,
      "わ": 1856,
      "ゑ": 1857,
      "ァ": 1858,
      "ア": 1859,
      "ィ": 1860,
      "イ": 1861,
      "ウ": 1862,
      "オ": 1863,
      "カ": 1864,
      "キ": 1865,
      "ク": 1866,
      "グ": 1867,
      "ゴ": 1868,
      "サ": 1869,
      "ザ": 1870,
      "シ": 1871,
      "ジ": 1872,
      "ス": 1873,
      "ズ": 1874,
      "ゼ": 1875,
      "ソ": 1876,
      "タ": 1877,
      "ダ": 1878,
      "チ": 1879,
      "ッ": 1880,
      "テ": 1881,
      "デ": 1882,
      "ト": 1883,
      "ド": 1884,
      "ナ": 1885,
      "ニ": 1886,
      "ネ": 1887,
      "ノ": 1888,
      "ハ": 1889,
      "ピ": 1890,
      "フ": 1891,
      "プ": 1892,
      "ヘ": 1893,
      "ホ": 1894,
      "ボ": 1895,
      "マ": 1896,
      "ミ": 1897,
      "ム": 1898,
      "メ": 1899,
      "モ": 1900,
      "ャ": 1901,
      "ヤ": 1902,
      "ュ": 1903,
      "ヨ": 1904,
      "ラ": 1905,
      "リ": 1906,
      "ル": 1907,
      "レ": 1908,
      "ロ": 1909,
      "ヮ": 1910,
      "ワ": 1911,
      "ン": 1912,
      "ヴ": 1913,
      "・": 1914,
      "ー": 1915,
      "㥳": 1916,
      "䴯": 1917,
      "䵍": 1918,
      "一": 1919,
      "七": 1920,
      "万": 1921,
      "三": 1922,
      "上": 1923,
      "下": 1924,
      "不": 1925,
      "与": 1926,
      "世": 1927,
      "东": 1928,
      "中": 1929,
      "为": 1930,
      "主": 1931,
      "丽": 1932,
      "乃": 1933,
      "之": 1934,
      "乐": 1935,
      "九": 1936,
      "也": 1937,
      "书": 1938,
      "亂": 1939,
      "了": 1940,
      "争": 1941,
      "二": 1942,
      "五": 1943,
      "井": 1944,
      "亚": 1945,
      "交": 1946,
      "京": 1947,
      "亮": 1948,
      "人": 1949,
      "什": 1950,
      "仁": 1951,
      "付": 1952,
      "仙": 1953,
      "代": 1954,
      "份": 1955,
      "伊": 1956,
      "伎": 1957,
      "会": 1958,
      "伝": 1959,
      "传": 1960,
      "伴": 1961,
      "伽": 1962,
      "佑": 1963,
      "余": 1964,
      "佛": 1965,
      "作": 1966,
      "佳": 1967,
      "例": 1968,
      "侍": 1969,
      "依": 1970,
      "保": 1971,
      "信": 1972,
      "俪": 1973,
      "修": 1974,
      "倉": 1975,
      "傳": 1976,
      "元": 1977,
      "兆": 1978,
      "光": 1979,
      "克": 1980,
      "児": 1981,
      "兒": 1982,
      "党": 1983,
      "八": 1984,
      "公": 1985,
      "六": 1986,
      "兰": 1987,
      "共": 1988,
      "兴": 1989,
      "其": 1990,
      "具": 1991,
      "典": 1992,
      "兼": 1993,
      "内": 1994,
      "円": 1995,
      "军": 1996,
      "农": 1997,
      "决": 1998,
      "凌": 1999,
      "凱": 2000,
      "出": 2001,
      "函": 2002,
      "刀": 2003,
      "切": 2004,
      "刑": 2005,
      "列": 2006,
      "刘": 2007,
      "利": 2008,
      "到": 2009,
      "制": 2010,
      "則": 2011,
      "剐": 2012,
      "剣": 2013,
      "剧": 2014,
      "劉": 2015,
      "力": 2016,
      "功": 2017,
      "勃": 2018,
      "勇": 2019,
      "勒": 2020,
      "動": 2021,
      "勢": 2022,
      "勳": 2023,
      "化": 2024,
      "北": 2025,
      "匹": 2026,
      "区": 2027,
      "區": 2028,
      "十": 2029,
      "千": 2030,
      "华": 2031,
      "卓": 2032,
      "協": 2033,
      "南": 2034,
      "博": 2035,
      "卡": 2036,
      "印": 2037,
      "卿": 2038,
      "厂": 2039,
      "历": 2040,
      "原": 2041,
      "厦": 2042,
      "厳": 2043,
      "去": 2044,
      "县": 2045,
      "參": 2046,
      "叉": 2047,
      "及": 2048,
      "友": 2049,
      "取": 2050,
      "口": 2051,
      "古": 2052,
      "可": 2053,
      "台": 2054,
      "史": 2055,
      "右": 2056,
      "号": 2057,
      "司": 2058,
      "合": 2059,
      "吉": 2060,
      "同": 2061,
      "名": 2062,
      "吳": 2063,
      "周": 2064,
      "呼": 2065,
      "命": 2066,
      "和": 2067,
      "哈": 2068,
      "哲": 2069,
      "哳": 2070,
      "唐": 2071,
      "商": 2072,
      "問": 2073,
      "啟": 2074,
      "喀": 2075,
      "善": 2076,
      "嘉": 2077,
      "器": 2078,
      "四": 2079,
      "回": 2080,
      "因": 2081,
      "団": 2082,
      "园": 2083,
      "図": 2084,
      "国": 2085,
      "图": 2086,
      "圆": 2087,
      "國": 2088,
      "園": 2089,
      "圖": 2090,
      "土": 2091,
      "在": 2092,
      "地": 2093,
      "坂": 2094,
      "坛": 2095,
      "坝": 2096,
      "垂": 2097,
      "型": 2098,
      "垣": 2099,
      "城": 2100,
      "埔": 2101,
      "執": 2102,
      "堂": 2103,
      "堅": 2104,
      "堆": 2105,
      "塔": 2106,
      "境": 2107,
      "墓": 2108,
      "墟": 2109,
      "墨": 2110,
      "壁": 2111,
      "壊": 2112,
      "壤": 2113,
      "士": 2114,
      "壽": 2115,
      "夏": 2116,
      "夕": 2117,
      "多": 2118,
      "夜": 2119,
      "夢": 2120,
      "大": 2121,
      "天": 2122,
      "太": 2123,
      "夫": 2124,
      "央": 2125,
      "头": 2126,
      "夷": 2127,
      "奈": 2128,
      "奉": 2129,
      "奎": 2130,
      "奘": 2131,
      "女": 2132,
      "好": 2133,
      "如": 2134,
      "妇": 2135,
      "妙": 2136,
      "始": 2137,
      "姫": 2138,
      "姿": 2139,
      "娡": 2140,
      "婆": 2141,
      "婦": 2142,
      "婺": 2143,
      "嬴": 2144,
      "孀": 2145,
      "子": 2146,
      "孔": 2147,
      "字": 2148,
      "存": 2149,
      "孙": 2150,
      "孝": 2151,
      "孟": 2152,
      "季": 2153,
      "学": 2154,
      "孫": 2155,
      "學": 2156,
      "宁": 2157,
      "宇": 2158,
      "安": 2159,
      "宋": 2160,
      "宏": 2161,
      "宗": 2162,
      "官": 2163,
      "宙": 2164,
      "宝": 2165,
      "客": 2166,
      "室": 2167,
      "宫": 2168,
      "宮": 2169,
      "家": 2170,
      "宿": 2171,
      "寅": 2172,
      "富": 2173,
      "寐": 2174,
      "寛": 2175,
      "寧": 2176,
      "寨": 2177,
      "寫": 2178,
      "寶": 2179,
      "寺": 2180,
      "封": 2181,
      "将": 2182,
      "小": 2183,
      "尔": 2184,
      "尼": 2185,
      "尾": 2186,
      "屏": 2187,
      "山": 2188,
      "岡": 2189,
      "岩": 2190,
      "峡": 2191,
      "峨": 2192,
      "峰": 2193,
      "島": 2194,
      "峻": 2195,
      "崇": 2196,
      "崎": 2197,
      "嵋": 2198,
      "嵐": 2199,
      "嶺": 2200,
      "嶽": 2201,
      "川": 2202,
      "州": 2203,
      "工": 2204,
      "巴": 2205,
      "巻": 2206,
      "市": 2207,
      "布": 2208,
      "帆": 2209,
      "帝": 2210,
      "師": 2211,
      "席": 2212,
      "帰": 2213,
      "干": 2214,
      "平": 2215,
      "年": 2216,
      "幹": 2217,
      "幼": 2218,
      "广": 2219,
      "広": 2220,
      "庄": 2221,
      "庆": 2222,
      "床": 2223,
      "庐": 2224,
      "店": 2225,
      "庙": 2226,
      "府": 2227,
      "度": 2228,
      "座": 2229,
      "庶": 2230,
      "康": 2231,
      "庸": 2232,
      "廖": 2233,
      "廣": 2234,
      "廳": 2235,
      "建": 2236,
      "式": 2237,
      "弓": 2238,
      "弗": 2239,
      "弘": 2240,
      "张": 2241,
      "当": 2242,
      "录": 2243,
      "形": 2244,
      "彦": 2245,
      "彫": 2246,
      "彰": 2247,
      "影": 2248,
      "征": 2249,
      "律": 2250,
      "徐": 2251,
      "御": 2252,
      "微": 2253,
      "德": 2254,
      "徹": 2255,
      "徽": 2256,
      "心": 2257,
      "必": 2258,
      "忍": 2259,
      "志": 2260,
      "忙": 2261,
      "忠": 2262,
      "快": 2263,
      "忽": 2264,
      "思": 2265,
      "怡": 2266,
      "怪": 2267,
      "恋": 2268,
      "恰": 2269,
      "恵": 2270,
      "悟": 2271,
      "惟": 2272,
      "想": 2273,
      "意": 2274,
      "感": 2275,
      "愿": 2276,
      "慶": 2277,
      "戈": 2278,
      "成": 2279,
      "我": 2280,
      "战": 2281,
      "戯": 2282,
      "戰": 2283,
      "戸": 2284,
      "房": 2285,
      "所": 2286,
      "扇": 2287,
      "才": 2288,
      "技": 2289,
      "把": 2290,
      "投": 2291,
      "担": 2292,
      "拉": 2293,
      "招": 2294,
      "拜": 2295,
      "排": 2296,
      "推": 2297,
      "摩": 2298,
      "支": 2299,
      "政": 2300,
      "敏": 2301,
      "數": 2302,
      "文": 2303,
      "斌": 2304,
      "斎": 2305,
      "斑": 2306,
      "斤": 2307,
      "断": 2308,
      "斯": 2309,
      "新": 2310,
      "方": 2311,
      "族": 2312,
      "日": 2313,
      "旧": 2314,
      "时": 2315,
      "昌": 2316,
      "明": 2317,
      "星": 2318,
      "春": 2319,
      "是": 2320,
      "昶": 2321,
      "時": 2322,
      "晟": 2323,
      "晩": 2324,
      "普": 2325,
      "景": 2326,
      "晴": 2327,
      "暑": 2328,
      "暮": 2329,
      "暴": 2330,
      "曆": 2331,
      "曲": 2332,
      "書": 2333,
      "曹": 2334,
      "曾": 2335,
      "會": 2336,
      "月": 2337,
      "有": 2338,
      "望": 2339,
      "朝": 2340,
      "期": 2341,
      "木": 2342,
      "未": 2343,
      "末": 2344,
      "本": 2345,
      "术": 2346,
      "朱": 2347,
      "杀": 2348,
      "李": 2349,
      "村": 2350,
      "条": 2351,
      "杭": 2352,
      "東": 2353,
      "松": 2354,
      "林": 2355,
      "果": 2356,
      "枪": 2357,
      "枫": 2358,
      "架": 2359,
      "柿": 2360,
      "栋": 2361,
      "树": 2362,
      "株": 2363,
      "格": 2364,
      "桂": 2365,
      "框": 2366,
      "桜": 2367,
      "梅": 2368,
      "條": 2369,
      "梦": 2370,
      "梨": 2371,
      "梯": 2372,
      "森": 2373,
      "植": 2374,
      "椿": 2375,
      "業": 2376,
      "楼": 2377,
      "榮": 2378,
      "構": 2379,
      "槍": 2380,
      "様": 2381,
      "槟": 2382,
      "樂": 2383,
      "樓": 2384,
      "樣": 2385,
      "横": 2386,
      "樹": 2387,
      "橋": 2388,
      "機": 2389,
      "橫": 2390,
      "檜": 2391,
      "櫻": 2392,
      "次": 2393,
      "歌": 2394,
      "正": 2395,
      "武": 2396,
      "歷": 2397,
      "死": 2398,
      "殷": 2399,
      "殺": 2400,
      "殿": 2401,
      "母": 2402,
      "毓": 2403,
      "比": 2404,
      "毛": 2405,
      "毫": 2406,
      "氏": 2407,
      "民": 2408,
      "気": 2409,
      "水": 2410,
      "永": 2411,
      "汉": 2412,
      "汝": 2413,
      "江": 2414,
      "池": 2415,
      "沈": 2416,
      "沒": 2417,
      "沖": 2418,
      "沙": 2419,
      "沟": 2420,
      "河": 2421,
      "油": 2422,
      "治": 2423,
      "法": 2424,
      "泥": 2425,
      "泰": 2426,
      "泸": 2427,
      "泽": 2428,
      "泾": 2429,
      "洄": 2430,
      "洋": 2431,
      "洛": 2432,
      "洞": 2433,
      "津": 2434,
      "洪": 2435,
      "洲": 2436,
      "活": 2437,
      "派": 2438,
      "浅": 2439,
      "浑": 2440,
      "浙": 2441,
      "浦": 2442,
      "浪": 2443,
      "海": 2444,
      "淑": 2445,
      "淮": 2446,
      "深": 2447,
      "淳": 2448,
      "淵": 2449,
      "清": 2450,
      "渋": 2451,
      "渭": 2452,
      "港": 2453,
      "游": 2454,
      "湖": 2455,
      "湘": 2456,
      "湯": 2457,
      "湾": 2458,
      "満": 2459,
      "源": 2460,
      "滕": 2461,
      "滝": 2462,
      "滿": 2463,
      "漆": 2464,
      "漠": 2465,
      "漢": 2466,
      "漫": 2467,
      "潘": 2468,
      "澤": 2469,
      "澳": 2470,
      "濟": 2471,
      "瀘": 2472,
      "瀚": 2473,
      "瀬": 2474,
      "瀾": 2475,
      "灣": 2476,
      "火": 2477,
      "烈": 2478,
      "烧": 2479,
      "無": 2480,
      "照": 2481,
      "熊": 2482,
      "熙": 2483,
      "熹": 2484,
      "燕": 2485,
      "爭": 2486,
      "爺": 2487,
      "片": 2488,
      "牛": 2489,
      "牧": 2490,
      "物": 2491,
      "特": 2492,
      "犁": 2493,
      "犬": 2494,
      "狂": 2495,
      "狙": 2496,
      "狩": 2497,
      "狮": 2498,
      "狼": 2499,
      "猿": 2500,
      "獅": 2501,
      "獣": 2502,
      "玄": 2503,
      "玉": 2504,
      "王": 2505,
      "玕": 2506,
      "玫": 2507,
      "环": 2508,
      "珠": 2509,
      "現": 2510,
      "球": 2511,
      "琏": 2512,
      "琪": 2513,
      "琳": 2514,
      "瑤": 2515,
      "瑰": 2516,
      "瑱": 2517,
      "瑶": 2518,
      "璧": 2519,
      "璽": 2520,
      "生": 2521,
      "産": 2522,
      "用": 2523,
      "甫": 2524,
      "田": 2525,
      "申": 2526,
      "电": 2527,
      "町": 2528,
      "画": 2529,
      "界": 2530,
      "畫": 2531,
      "異": 2532,
      "病": 2533,
      "癖": 2534,
      "発": 2535,
      "登": 2536,
      "白": 2537,
      "百": 2538,
      "的": 2539,
      "皇": 2540,
      "盈": 2541,
      "盛": 2542,
      "盤": 2543,
      "盧": 2544,
      "目": 2545,
      "直": 2546,
      "省": 2547,
      "真": 2548,
      "眠": 2549,
      "眼": 2550,
      "眾": 2551,
      "着": 2552,
      "矢": 2553,
      "知": 2554,
      "短": 2555,
      "石": 2556,
      "研": 2557,
      "砚": 2558,
      "破": 2559,
      "硕": 2560,
      "硬": 2561,
      "硯": 2562,
      "碩": 2563,
      "磔": 2564,
      "社": 2565,
      "神": 2566,
      "祭": 2567,
      "禁": 2568,
      "禎": 2569,
      "福": 2570,
      "禿": 2571,
      "秀": 2572,
      "秉": 2573,
      "秋": 2574,
      "租": 2575,
      "秤": 2576,
      "移": 2577,
      "穂": 2578,
      "究": 2579,
      "空": 2580,
      "窒": 2581,
      "窟": 2582,
      "立": 2583,
      "竜": 2584,
      "章": 2585,
      "竹": 2586,
      "笔": 2587,
      "筆": 2588,
      "箏": 2589,
      "簿": 2590,
      "米": 2591,
      "粟": 2592,
      "粤": 2593,
      "粵": 2594,
      "紅": 2595,
      "納": 2596,
      "紙": 2597,
      "素": 2598,
      "紫": 2599,
      "結": 2600,
      "絵": 2601,
      "綠": 2602,
      "線": 2603,
      "縛": 2604,
      "縣": 2605,
      "縱": 2606,
      "織": 2607,
      "繩": 2608,
      "繰": 2609,
      "纏": 2610,
      "红": 2611,
      "纵": 2612,
      "纸": 2613,
      "维": 2614,
      "缠": 2615,
      "罗": 2616,
      "羅": 2617,
      "羊": 2618,
      "美": 2619,
      "群": 2620,
      "羽": 2621,
      "翁": 2622,
      "翻": 2623,
      "老": 2624,
      "者": 2625,
      "耶": 2626,
      "聂": 2627,
      "联": 2628,
      "聪": 2629,
      "肉": 2630,
      "股": 2631,
      "胡": 2632,
      "脉": 2633,
      "脚": 2634,
      "腥": 2635,
      "腦": 2636,
      "腳": 2637,
      "腻": 2638,
      "腾": 2639,
      "臥": 2640,
      "臧": 2641,
      "自": 2642,
      "至": 2643,
      "臺": 2644,
      "興": 2645,
      "舊": 2646,
      "舍": 2647,
      "舞": 2648,
      "航": 2649,
      "船": 2650,
      "良": 2651,
      "色": 2652,
      "艾": 2653,
      "芙": 2654,
      "芝": 2655,
      "芥": 2656,
      "芬": 2657,
      "芭": 2658,
      "花": 2659,
      "芳": 2660,
      "苑": 2661,
      "若": 2662,
      "英": 2663,
      "茂": 2664,
      "茶": 2665,
      "草": 2666,
      "荣": 2667,
      "荼": 2668,
      "莊": 2669,
      "莲": 2670,
      "菅": 2671,
      "菊": 2672,
      "菜": 2673,
      "菩": 2674,
      "華": 2675,
      "落": 2676,
      "葉": 2677,
      "著": 2678,
      "葛": 2679,
      "葱": 2680,
      "蒙": 2681,
      "蒲": 2682,
      "蒼": 2683,
      "蓉": 2684,
      "蓮": 2685,
      "蔣": 2686,
      "蕉": 2687,
      "蕙": 2688,
      "薩": 2689,
      "薬": 2690,
      "藍": 2691,
      "藏": 2692,
      "藤": 2693,
      "蘇": 2694,
      "蘋": 2695,
      "蘭": 2696,
      "虎": 2697,
      "虛": 2698,
      "虫": 2699,
      "蛇": 2700,
      "蛮": 2701,
      "蜜": 2702,
      "蝦": 2703,
      "蝶": 2704,
      "融": 2705,
      "蟇": 2706,
      "蟲": 2707,
      "血": 2708,
      "行": 2709,
      "術": 2710,
      "街": 2711,
      "衛": 2712,
      "表": 2713,
      "衹": 2714,
      "袖": 2715,
      "裏": 2716,
      "裡": 2717,
      "製": 2718,
      "西": 2719,
      "要": 2720,
      "見": 2721,
      "規": 2722,
      "観": 2723,
      "觀": 2724,
      "角": 2725,
      "言": 2726,
      "設": 2727,
      "許": 2728,
      "訶": 2729,
      "詞": 2730,
      "詩": 2731,
      "話": 2732,
      "詹": 2733,
      "語": 2734,
      "諺": 2735,
      "謹": 2736,
      "譚": 2737,
      "議": 2738,
      "讀": 2739,
      "语": 2740,
      "谭": 2741,
      "谷": 2742,
      "豐": 2743,
      "貞": 2744,
      "財": 2745,
      "貴": 2746,
      "贤": 2747,
      "贵": 2748,
      "贾": 2749,
      "资": 2750,
      "赤": 2751,
      "赵": 2752,
      "超": 2753,
      "越": 2754,
      "趙": 2755,
      "足": 2756,
      "距": 2757,
      "跟": 2758,
      "跡": 2759,
      "躋": 2760,
      "車": 2761,
      "軍": 2762,
      "軒": 2763,
      "軟": 2764,
      "軽": 2765,
      "輿": 2766,
      "辛": 2767,
      "辭": 2768,
      "辰": 2769,
      "農": 2770,
      "边": 2771,
      "达": 2772,
      "近": 2773,
      "返": 2774,
      "连": 2775,
      "迟": 2776,
      "迦": 2777,
      "述": 2778,
      "适": 2779,
      "递": 2780,
      "通": 2781,
      "造": 2782,
      "連": 2783,
      "進": 2784,
      "過": 2785,
      "道": 2786,
      "達": 2787,
      "遗": 2788,
      "遲": 2789,
      "遺": 2790,
      "避": 2791,
      "邊": 2792,
      "邑": 2793,
      "那": 2794,
      "邪": 2795,
      "邯": 2796,
      "郎": 2797,
      "郡": 2798,
      "部": 2799,
      "郭": 2800,
      "郸": 2801,
      "都": 2802,
      "鄂": 2803,
      "鄉": 2804,
      "酒": 2805,
      "里": 2806,
      "重": 2807,
      "野": 2808,
      "金": 2809,
      "鈞": 2810,
      "鉄": 2811,
      "銘": 2812,
      "錄": 2813,
      "鎮": 2814,
      "鐘": 2815,
      "铜": 2816,
      "铨": 2817,
      "银": 2818,
      "镇": 2819,
      "長": 2820,
      "长": 2821,
      "門": 2822,
      "開": 2823,
      "間": 2824,
      "閔": 2825,
      "関": 2826,
      "閣": 2827,
      "閩": 2828,
      "闍": 2829,
      "门": 2830,
      "阁": 2831,
      "阜": 2832,
      "阳": 2833,
      "阴": 2834,
      "阿": 2835,
      "陀": 2836,
      "际": 2837,
      "陈": 2838,
      "限": 2839,
      "陕": 2840,
      "院": 2841,
      "陰": 2842,
      "陳": 2843,
      "陵": 2844,
      "陸": 2845,
      "陽": 2846,
      "隅": 2847,
      "隆": 2848,
      "際": 2849,
      "隧": 2850,
      "隱": 2851,
      "雁": 2852,
      "雄": 2853,
      "雅": 2854,
      "集": 2855,
      "雛": 2856,
      "離": 2857,
      "雨": 2858,
      "雪": 2859,
      "雲": 2860,
      "雷": 2861,
      "電": 2862,
      "雾": 2863,
      "霊": 2864,
      "霍": 2865,
      "霧": 2866,
      "青": 2867,
      "靖": 2868,
      "非": 2869,
      "韓": 2870,
      "音": 2871,
      "頭": 2872,
      "顺": 2873,
      "额": 2874,
      "風": 2875,
      "风": 2876,
      "食": 2877,
      "飯": 2878,
      "飾": 2879,
      "館": 2880,
      "馬": 2881,
      "駿": 2882,
      "马": 2883,
      "體": 2884,
      "高": 2885,
      "魏": 2886,
      "魚": 2887,
      "魯": 2888,
      "鮮": 2889,
      "鱼": 2890,
      "鲛": 2891,
      "鳥": 2892,
      "鳩": 2893,
      "鴨": 2894,
      "鶏": 2895,
      "鸞": 2896,
      "鸟": 2897,
      "鸡": 2898,
      "鸢": 2899,
      "鸿": 2900,
      "鹿": 2901,
      "麟": 2902,
      "麻": 2903,
      "黃": 2904,
      "黄": 2905,
      "黑": 2906,
      "鼠": 2907,
      "齊": 2908,
      "齐": 2909,
      "龍": 2910,
      "龙": 2911,
      "ꀉ": 2912,
      "ꁌ": 2913,
      "ꃅ": 2914,
      "ꅋ": 2915,
      "ꐧ": 2916,
      "ꜜ": 2917,
      "ꜣ": 2918,
      "ꦁ": 2919,
      "ꦏ": 2920,
      "ꦗ": 2921,
      "ꦛ": 2922,
      "ꦠ": 2923,
      "ꦢ": 2924,
      "ꦤ": 2925,
      "ꦥ": 2926,
      "ꦧ": 2927,
      "ꦩ": 2928,
      "ꦪ": 2929,
      "ꦫ": 2930,
      "ꦭ": 2931,
      "ꦮ": 2932,
      "ꦱ": 2933,
      "ꦲ": 2934,
      "ꦴ": 2935,
      "ꦶ": 2936,
      "ꦸ": 2937,
      "ꦺ": 2938,
      "ꦿ": 2939,
      "꧀": 2940,
      "가": 2941,
      "각": 2942,
      "간": 2943,
      "강": 2944,
      "개": 2945,
      "것": 2946,
      "공": 2947,
      "국": 2948,
      "권": 2949,
      "글": 2950,
      "기": 2951,
      "김": 2952,
      "꽃": 2953,
      "나": 2954,
      "년": 2955,
      "는": 2956,
      "니": 2957,
      "다": 2958,
      "달": 2959,
      "대": 2960,
      "도": 2961,
      "독": 2962,
      "동": 2963,
      "라": 2964,
      "란": 2965,
      "랍": 2966,
      "로": 2967,
      "리": 2968,
      "림": 2969,
      "망": 2970,
      "몽": 2971,
      "묵": 2972,
      "문": 2973,
      "미": 2974,
      "바": 2975,
      "박": 2976,
      "반": 2977,
      "배": 2978,
      "복": 2979,
      "붓": 2980,
      "빠": 2981,
      "사": 2982,
      "산": 2983,
      "생": 2984,
      "설": 2985,
      "성": 2986,
      "소": 2987,
      "수": 2988,
      "스": 2989,
      "시": 2990,
      "식": 2991,
      "신": 2992,
      "아": 2993,
      "양": 2994,
      "어": 2995,
      "언": 2996,
      "여": 2997,
      "오": 2998,
      "온": 2999,
      "용": 3000,
      "운": 3001,
      "웅": 3002,
      "원": 3003,
      "유": 3004,
      "의": 3005,
      "이": 3006,
      "인": 3007,
      "임": 3008,
      "자": 3009,
      "장": 3010,
      "전": 3011,
      "정": 3012,
      "제": 3013,
      "주": 3014,
      "진": 3015,
      "집": 3016,
      "채": 3017,
      "천": 3018,
      "첨": 3019,
      "청": 3020,
      "취": 3021,
      "콤": 3022,
      "태": 3023,
      "테": 3024,
      "트": 3025,
      "판": 3026,
      "풍": 3027,
      "한": 3028,
      "항": 3029,
      "허": 3030,
      "현": 3031,
      "화": 3032,
      "희": 3033,
      "흰": 3034,
      "ﭼ": 3035,
      "ﮩ": 3036,
      "ﮭ": 3037,
      "ﯩ": 3038,
      "﴾": 3039,
      "﴿": 3040,
      "ﷲ": 3041,
      "ﷺ": 3042,
      "﷽": 3043,
      "️": 3044,
      "︢": 3045,
      "ﺇ": 3046,
      "ﺎ": 3047,
      "ﺑ": 3048,
      "ﺮ": 3049,
      "ﻍ": 3050,
      "ﻐ": 3051,
      "ﻜ": 3052,
      "ﻢ": 3053,
      "ﻨ": 3054,
      "ﻪ": 3055,
      "ﻳ": 3056,
      "﻿": 3057,
      "（": 3058,
      "）": 3059,
      "，": 3060,
      "：": 3061,
      "ﾟ": 3062,
      "￰": 3063,
      "￻": 3064,
      "￼": 3065,
      "�": 3066,
      "𐌂": 3067,
      "𐎁": 3068,
      "𐎍": 3069,
      "𐎓": 3070,
      "𐎧": 3071,
      "𐎲": 3072,
      "𐎾": 3073,
      "𐤁": 3074,
      "𐤃": 3075,
      "𐤅": 3076,
      "𐤋": 3077,
      "𐤏": 3078,
      "𐤑": 3079,
      "𐤓": 3080,
      "𐤔": 3081,
      "𐤕": 3082,
      "𒀝": 3083,
      "𒂵": 3084,
      "𒈪": 3085,
      "𒊒": 3086,
      "𒊕": 3087,
      "𒋗": 3088,
      "𒌈": 3089,
      "𒌦": 3090,
      "𓈖": 3091,
      "𝛿": 3092,
      "🍆": 3093,
      "🍙": 3094,
      "🍛": 3095,
      "🍜": 3096,
      "🍡": 3097,
      "🍣": 3098,
      "🏻": 3099,
      "🏼": 3100,
      "🏽": 3101,
      "🏾": 3102,
      "🏿": 3103,
      "🐝": 3104,
      "🐞": 3105,
      "👉": 3106,
      "👧": 3107,
      "👨": 3108,
      "👩": 3109,
      "💃": 3110,
      "💅": 3111,
      "💮": 3112,
      "💶": 3113,
      "💺": 3114,
      "😂": 3115,
      "😜": 3116,
      "😥": 3117,
      "😷": 3118,
      "🙇": 3119,
      "##ീ": 3120,
      "##ര": 3121,
      "##ു": 3122,
      "##മ": 3123,
      "##ാ": 3124,
      "##ന": 3125,
      "##ങ": 3126,
      "##്": 3127,
      "##ള": 3128,
      "##െ": 3129,
      "##ട": 3130,
      "##ത": 3131,
      "##ി": 3132,
      "##ൂ": 3133,
      "##ല": 3134,
      "##യ": 3135,
      "##ക": 3136,
      "##ം": 3137,
      "##ഴ": 3138,
      "##ച": 3139,
      "##ണ": 3140,
      "##വ": 3141,
      "##ൾ": 3142,
      "##ർ": 3143,
      "##ഗ": 3144,
      "##ോ": 3145,
      "##പ": 3146,
      "##സ": 3147,
      "##𐤅": 3148,
      "##𐤓": 3149,
      "##റ": 3150,
      "##ഡ": 3151,
      "##ൻ": 3152,
      "##ൈ": 3153,
      "##ബ": 3154,
      "##ജ": 3155,
      "##എ": 3156,
      "##ഐ": 3157,
      "##ൽ": 3158,
      "##0": 3159,
      "##7": 3160,
      "##1": 3161,
      "##5": 3162,
      "##േ": 3163,
      "##ൗ": 3164,
      "##ൺ": 3165,
      "##‌": 3166,
      "##ഷ": 3167,
      "##4": 3168,
      "##ശ": 3169,
      "##ദ": 3170,
      "##ധ": 3171,
      "##8": 3172,
      "##3": 3173,
      "##ൊ": 3174,
      "##ഥ": 3175,
      "##ഹ": 3176,
      "##ा": 3177,
      "##म": 3178,
      "##े": 3179,
      "##ण": 3180,
      "##ൃ": 3181,
      "##ഖ": 3182,
      "##ഫ": 3183,
      "##ഭ": 3184,
      "##ഘ": 3185,
      "##6": 3186,
      "##ഞ": 3187,
      "##‍": 3188,
      "##国": 3189,
      "##青": 3190,
      "##铜": 3191,
      "##器": 3192,
      "##9": 3193,
      "##2": 3194,
      "##要": 3195,
      "##ഇ": 3196,
      "##ே": 3197,
      "##ற": 3198,
      "##்": 3199,
      "##க": 3200,
      "##ு": 3201,
      "##ഠ": 3202,
      "##അ": 3203,
      "##ഛ": 3204,
      "##ഓ": 3205,
      "##ἰ": 3206,
      "##ς": 3207,
      "##ೃ": 3208,
      "##ಷ": 3209,
      "##್": 3210,
      "##ಣ": 3211,
      "##ಾ": 3212,
      "##ɛ": 3213,
      "##ɪ": 3214,
      "##ഢ": 3215,
      "##ʼ": 3216,
      "##ഒ": 3217,
      "##ഃ": 3218,
      "##´": 3219,
      "##星": 3220,
      "##ൌ": 3221,
      "##ل": 3222,
      "##ح": 3223,
      "##ആ": 3224,
      "##ഈ": 3225,
      "##त": 3226,
      "##्": 3227,
      "##र": 3228,
      "##य": 3229,
      "##ഏ": 3230,
      "##ṯ": 3231,
      "##ⲙ": 3232,
      "##ⲉ": 3233,
      "##ⲧ": 3234,
      "##ⲣ": 3235,
      "##ⲛ": 3236,
      "##̀": 3237,
      "##ⲭ": 3238,
      "##ⲏ": 3239,
      "##ⲓ": 3240,
      "##ო": 3241,
      "##ლ": 3242,
      "##ხ": 3243,
      "##ე": 3244,
      "##თ": 3245,
      "##ი": 3246,
      "##ط": 3247,
      "##ن": 3248,
      "##ت": 3249,
      "##ِ": 3250,
      "##ক": 3251,
      "##্": 3252,
      "##ত": 3253,
      "##ং": 3254,
      "##চ": 3255,
      "##ন": 3256,
      "##ر": 3257,
      "##س": 3258,
      "##ছ": 3259,
      "##ো": 3260,
      "##е": 3261,
      "##б": 3262,
      "##р": 3263,
      "##д": 3264,
      "##и": 3265,
      "##н": 3266,
      "##с": 3267,
      "##к": 3268,
      "##й": 3269,
      "##光": 3270,
      "##立": 3271,
      "##公": 3272,
      "##園": 3273,
      "##न": 3274,
      "##ि": 3275,
      "##ष": 3276,
      "##ठ": 3277,
      "##遲": 3278,
      "##ൿ": 3279,
      "##व": 3280,
      "##स": 3281,
      "##¡": 3282,
      "##¢": 3283,
      "##¨": 3284,
      "##م": 3285,
      "##ص": 3286,
      "##ف": 3287,
      "##ا": 3288,
      "##ب": 3289,
      "##ข": 3290,
      "##ื": 3291,
      "##่": 3292,
      "##อ": 3293,
      "##น": 3294,
      "##а": 3295,
      "##п": 3296,
      "##о": 3297,
      "##в": 3298,
      "##ш": 3299,
      "##ٲ": 3300,
      "##ش": 3301,
      "##ُ": 3302,
      "##ā": 3303,
      "##â": 3304,
      "##ǎ": 3305,
      "##ق": 3306,
      "##ഌ": 3307,
      "##§": 3308,
      "##ഉ": 3309,
      "##·": 3310,
      "##©": 3311,
      "##¸": 3312,
      "##®": 3313,
      "##ै": 3314,
      "##ल": 3315,
      "##ी": 3316,
      "##द": 3317,
      "##ร": 3318,
      "##ะ": 3319,
      "##า": 3320,
      "##ช": 3321,
      "##พ": 3322,
      "##ิ": 3323,
      "##ธ": 3324,
      "##ี": 3325,
      "##ส": 3326,
      "##ม": 3327,
      "##โ": 3328,
      "##ภ": 3329,
      "##เ": 3330,
      "##ด": 3331,
      "##แ": 3332,
      "##ล": 3333,
      "##ึ": 3334,
      "##้": 3335,
      "##ู": 3336,
      "##ñ": 3337,
      "##൪": 3338,
      "##μ": 3339,
      "##α": 3340,
      "##ρ": 3341,
      "##ύ": 3342,
      "##σ": 3343,
      "##ω": 3344,
      "##و": 3345,
      "##ه": 3346,
      "##഼": 3347,
      "##ੀ": 3348,
      "##ਰ": 3349,
      "##¼": 3350,
      "##£": 3351,
      "##ೆ": 3352,
      "##ಂ": 3353,
      "##ಕ": 3354,
      "##ಟ": 3355,
      "##ಪ": 3356,
      "##ಗ": 3357,
      "##ೌ": 3358,
      "##ಡ": 3359,
      "##л": 3360,
      "##м": 3361,
      "##́": 3362,
      "##з": 3363,
      "##ě": 3364,
      "##á": 3365,
      "##ó": 3366,
      "##च": 3367,
      "##क": 3368,
      "##ي": 3369,
      "##ة": 3370,
      "##«": 3371,
      "##т": 3372,
      "##త": 3373,
      "##ప": 3374,
      "##్": 3375,
      "##ం": 3376,
      "##ع": 3377,
      "##ŋ": 3378,
      "##ɡ": 3379,
      "##ʷ": 3380,
      "##ض": 3381,
      "##ی": 3382,
      "##ː": 3383,
      "##ɕ": 3384,
      "##ħ": 3385,
      "##ɑ": 3386,
      "##æ": 3387,
      "##ำ": 3388,
      "##ต": 3389,
      "##ก": 3390,
      "##ห": 3391,
      "##ว": 3392,
      "##ย": 3393,
      "##ใ": 3394,
      "##ญ": 3395,
      "##ഝ": 3396,
      "##ə": 3397,
      "##ɦ": 3398,
      "##λ": 3399,
      "##ν": 3400,
      "##ह": 3401,
      "##ड": 3402,
      "##ो": 3403,
      "##த": 3404,
      "##ன": 3405,
      "##ம": 3406,
      "##ಮ": 3407,
      "##ನ": 3408,
      "##ئ": 3409,
      "##د": 3410,
      "##ರ": 3411,
      "##ತ": 3412,
      "##κ": 3413,
      "##τ": 3414,
      "##ώ": 3415,
      "##ु": 3416,
      "##گ": 3417,
      "##ى": 3418,
      "##ಯ": 3419,
      "##é": 3420,
      "##\\": 3421,
      "##൦": 3422,
      "##൧": 3423,
      "##൩": 3424,
      "##ḥ": 3425,
      "##ʒ": 3426,
      "##श": 3427,
      "##ವ": 3428,
      "##º": 3429,
      "##Ā": 3430,
      "##β": 3431,
      "##ა": 3432,
      "##უ": 3433,
      "##მ": 3434,
      "##ṃ": 3435,
      "##ர": 3436,
      "##ி": 3437,
      "##×": 3438,
      "##ɨ": 3439,
      "##қ": 3440,
      "##ғ": 3441,
      "##ॐ": 3442,
      "##ج": 3443,
      "##ˈ": 3444,
      "##ུ": 3445,
      "##บ": 3446,
      "##ท": 3447,
      "##็": 3448,
      "##จ": 3449,
      "##ป": 3450,
      "##ุ": 3451,
      "##ฯ": 3452,
      "##ু": 3453,
      "##দ": 3454,
      "##ா": 3455,
      "##ல": 3456,
      "##¦": 3457,
      "##¤": 3458,
      "##¾": 3459,
      "##毫": 3460,
      "##ப": 3461,
      "##ழ": 3462,
      "##া": 3463,
      "##ব": 3464,
      "##জ": 3465,
      "##ম": 3466,
      "##ি": 3467,
      "##̩": 3468,
      "##ச": 3469,
      "##ந": 3470,
      "##थ": 3471,
      "##γ": 3472,
      "##ε": 3473,
      "##ί": 3474,
      "##¥": 3475,
      "##ہ": 3476,
      "##ʁ": 3477,
      "##女": 3478,
      "##峰": 3479,
      "##ʲ": 3480,
      "##ك": 3481,
      "##پ": 3482,
      "##ਏ": 3483,
      "##í": 3484,
      "##ک": 3485,
      "##ਿ": 3486,
      "##ਟ": 3487,
      "##ഋ": 3488,
      "##ಧ": 3489,
      "##ು": 3490,
      "##ಸ": 3491,
      "##ೂ": 3492,
      "##ದ": 3493,
      "##ɔ": 3494,
      "##η": 3495,
      "##ă": 3496,
      "##ã": 3497,
      "##१": 3498,
      "##८": 3499,
      "##०": 3500,
      "##२": 3501,
      "##і": 3502,
      "##ч": 3503,
      "##ె": 3504,
      "##ట": 3505,
      "##ర": 3506,
      "##ో": 3507,
      "##إ": 3508,
      "##ू": 3509,
      "##ä": 3510,
      "##勃": 3511,
      "##律": 3512,
      "##祭": 3513,
      "##り": 3514,
      "##Ẓ": 3515,
      "##൯": 3516,
      "##А": 3517,
      "##家": 3518,
      "##大": 3519,
      "##剧": 3520,
      "##院": 3521,
      "##ூ": 3522,
      "##ங": 3523,
      "##ή": 3524,
      "##’": 3525,
      "##‘": 3526,
      "##ೀ": 3527,
      "##ಲ": 3528,
      "##ے": 3529,
      "##ट": 3530,
      "##琏": 3531,
      "##ы": 3532,
      "##ద": 3533,
      "##ి": 3534,
      "##ं": 3535,
      "##ग": 3536,
      "##ሉ": 3537,
      "##¶": 3538,
      "##鮮": 3539,
      "##語": 3540,
      "##研": 3541,
      "##究": 3542,
      "##會": 3543,
      "##¹": 3544,
      "##َ": 3545,
      "##ّ": 3546,
      "##ۡ": 3547,
      "##ٍ": 3548,
      "##π": 3549,
      "##ο": 3550,
      "##ొ": 3551,
      "##ణ": 3552,
      "##జ": 3553,
      "##ే": 3554,
      "##ზ": 3555,
      "##ბ": 3556,
      "##გ": 3557,
      "##ੂ": 3558,
      "##ั": 3559,
      "##ศ": 3560,
      "##์": 3561,
      "##玉": 3562,
      "##修": 3563,
      "##ध": 3564,
      "##¬": 3565,
      "##ན": 3566,
      "##མ": 3567,
      "##ূ": 3568,
      "##ল": 3569,
      "##خ": 3570,
      "##ೋ": 3571,
      "##语": 3572,
      "##華": 3573,
      "##ೊ": 3574,
      "##ঁ": 3575,
      "##ী": 3576,
      "##ʊ": 3577,
      "##ָ": 3578,
      "##ּ": 3579,
      "##ל": 3580,
      "##ְ": 3581,
      "##י": 3582,
      "##ת": 3583,
      "##ీ": 3584,
      "##ι": 3585,
      "##̯": 3586,
      "##ç": 3587,
      "##議": 3588,
      "##ँ": 3589,
      "##ঠ": 3590,
      "##ড": 3591,
      "##ে": 3592,
      "##শ": 3593,
      "##х": 3594,
      "##ഔ": 3595,
      "##ோ": 3596,
      "##ո": 3597,
      "##ր": 3598,
      "##ի": 3599,
      "##ս": 3600,
      "##ڈ": 3601,
      "##ഊ": 3602,
      "##š": 3603,
      "##ī": 3604,
      "##у": 3605,
      "##я": 3606,
      "##ൡ": 3607,
      "##ถ": 3608,
      "##ง": 3609,
      "##ు": 3610,
      "##గ": 3611,
      "##г": 3612,
      "##வ": 3613,
      "##ු": 3614,
      "##ප": 3615,
      "##ි": 3616,
      "##ය": 3617,
      "##ල": 3618,
      "##फ": 3619,
      "##ೇ": 3620,
      "##京": 3621,
      "##ண": 3622,
      "##ய": 3623,
      "##ь": 3624,
      "##І": 3625,
      "##ஜ": 3626,
      "##ю": 3627,
      "##ц": 3628,
      "##ల": 3629,
      "##野": 3630,
      "##র": 3631,
      "##ɣ": 3632,
      "##গ": 3633,
      "##হ": 3634,
      "##ট": 3635,
      "##ꜜ": 3636,
      "##ɴ": 3637,
      "##ฐ": 3638,
      "##🐞": 3639,
      "##¿": 3640,
      "##à": 3641,
      "##प": 3642,
      "##उ": 3643,
      "##ï": 3644,
      "##郸": 3645,
      "##ྱ": 3646,
      "##ག": 3647,
      "##ď": 3648,
      "##ʰ": 3649,
      "##ྐ": 3650,
      "##ར": 3651,
      "##ј": 3652,
      "##ब": 3653,
      "##イ": 3654,
      "##キ": 3655,
      "##ュ": 3656,
      "##ー": 3657,
      "##ॅ": 3658,
      "##䵍": 3659,
      "##ર": 3660,
      "##ે": 3661,
      "##શ": 3662,
      "##ˌ": 3663,
      "##ð": 3664,
      "##ъ": 3665,
      "##ੱ": 3666,
      "##ਖ": 3667,
      "##ਣ": 3668,
      "##ਾ": 3669,
      "##ز": 3670,
      "##ō": 3671,
      "##ْ": 3672,
      "##ਸ": 3673,
      "##ਤ": 3674,
      "##ી": 3675,
      "##ણ": 3676,
      "##ા": 3677,
      "##ξ": 3678,
      "##ū": 3679,
      "##þ": 3680,
      "##ञ": 3681,
      "##נ": 3682,
      "##ை": 3683,
      "##ܐ": 3684,
      "##ܣ": 3685,
      "##ܛ": 3686,
      "##ܘ": 3687,
      "##ܢ": 3688,
      "##ό": 3689,
      "##ά": 3690,
      "##φ": 3691,
      "##德": 3692,
      "##蕙": 3693,
      "##ڑ": 3694,
      "##ھ": 3695,
      "##檜": 3696,
      "##±": 3697,
      "##ା": 3698,
      "##ସ": 3699,
      "##ୁ": 3700,
      "##ମ": 3701,
      "##ତ": 3702,
      "##ୀ": 3703,
      "##য": 3704,
      "##ṇ": 3705,
      "##ַ": 3706,
      "##כ": 3707,
      "##ו": 3708,
      "##ֹ": 3709,
      "##峨": 3710,
      "##嵋": 3711,
      "##山": 3712,
      "##բ": 3713,
      "##ւ": 3714,
      "##դ": 3715,
      "##ա": 3716,
      "##ղ": 3717,
      "##յ": 3718,
      "##ն": 3719,
      "##達": 3720,
      "##國": 3721,
      "##際": 3722,
      "##電": 3723,
      "##子": 3724,
      "##股": 3725,
      "##份": 3726,
      "##有": 3727,
      "##限": 3728,
      "##司": 3729,
      "##ख": 3730,
      "##龍": 3731,
      "##嶺": 3732,
      "##δ": 3733,
      "##ৰ": 3734,
      "##ב": 3735,
      "##ר": 3736,
      "##ה": 3737,
      "##ם": 3738,
      "##担": 3739,
      "##ぎ": 3740,
      "##़": 3741,
      "##ृ": 3742,
      "##ż": 3743,
      "##θ": 3744,
      "##֗": 3745,
      "##ע": 3746,
      "##̣": 3747,
      "##ᮥ": 3748,
      "##ᮊ": 3749,
      "##ᮘ": 3750,
      "##ᮙ": 3751,
      "##ᮤ": 3752,
      "##烧": 3753,
      "##ज": 3754,
      "##ö": 3755,
      "##風": 3756,
      "##快": 3757,
      "##晴": 3758,
      "##̃": 3759,
      "##ণ": 3760,
      "##প": 3761,
      "##ੌ": 3762,
      "##ਂ": 3763,
      "##ਕ": 3764,
      "##暴": 3765,
      "##ё": 3766,
      "##ැ": 3767,
      "##ஆ": 3768,
      "##物": 3769,
      "##元": 3770,
      "##ବ": 3771,
      "##ି": 3772,
      "##ଜ": 3773,
      "##ಿ": 3774,
      "##ಜ": 3775,
      "##ॉ": 3776,
      "##ⴰ": 3777,
      "##ⵟ": 3778,
      "##ⵍ": 3779,
      "##ⵙ": 3780,
      "##ಬ": 3781,
      "##ಳ": 3782,
      "##ɫ": 3783,
      "##黃": 3784,
      "##ौ": 3785,
      "##天": 3786,
      "##王": 3787,
      "##ტ": 3788,
      "##რ": 3789,
      "##ს": 3790,
      "##ɒ": 3791,
      "##ც": 3792,
      "##ნ": 3793,
      "##ט": 3794,
      "##מ": 3795,
      "##ס": 3796,
      "##ћ": 3797,
      "##ῦ": 3798,
      "##ட": 3799,
      "##ء": 3800,
      "##ए": 3801,
      "##͡": 3802,
      "##ʃ": 3803,
      "##å": 3804,
      "##ᵊ": 3805,
      "##भ": 3806,
      "##黄": 3807,
      "##॒": 3808,
      "##ф": 3809,
      "##ṣ": 3810,
      "##٘": 3811,
      "##॑": 3812,
      "##ṛ": 3813,
      "##ੁ": 3814,
      "##ਲ": 3815,
      "##ʌ": 3816,
      "##ᵻ": 3817,
      "##ʿ": 3818,
      "##ಶ": 3819,
      "##൫": 3820,
      "##ગ": 3821,
      "##ડ": 3822,
      "##ś": 3823,
      "##乐": 3824,
      "##ধ": 3825,
      "##়": 3826,
      "##ډ": 3827,
      "##υ": 3828,
      "##ਜ": 3829,
      "##ੈ": 3830,
      "##ੰ": 3831,
      "##ਦ": 3832,
      "##ੇ": 3833,
      "##ذ": 3834,
      "##额": 3835,
      "##א": 3836,
      "##城": 3837,
      "##脚": 3838,
      "##下": 3839,
      "##的": 3840,
      "##社": 3841,
      "##э": 3842,
      "##Г": 3843,
      "##У": 3844,
      "##ळ": 3845,
      "##ไ": 3846,
      "##ค": 3847,
      "##൨": 3848,
      "##ܲ": 3849,
      "##ܠ": 3850,
      "##ܝ": 3851,
      "##ܵ": 3852,
      "##ܡ": 3853,
      "##자": 3854,
      "##䴯": 3855,
      "##广": 3856,
      "##晟": 3857,
      "##际": 3858,
      "##厦": 3859,
      "##அ": 3860,
      "##ஸ": 3861,
      "##ই": 3862,
      "##ث": 3863,
      "##ள": 3864,
      "##ٹ": 3865,
      "##ʋ": 3866,
      "##ɽ": 3867,
      "##İ": 3868,
      "##ः": 3869,
      "##ᠠ": 3870,
      "##ᡥ": 3871,
      "##ᠯ": 3872,
      "##ᡳ": 3873,
      "##ᠶ": 3874,
      "##ᠨ": 3875,
      "##ɾ": 3876,
      "##ɐ": 3877,
      "##൮": 3878,
      "##腻": 3879,
      "##色": 3880,
      "##伽": 3881,
      "##プ": 3882,
      "##リ": 3883,
      "##ン": 3884,
      "##シ": 3885,
      "##ル": 3886,
      "##ı": 3887,
      "##М": 3888,
      "##田": 3889,
      "##川": 3890,
      "##è": 3891,
      "##ද": 3892,
      "##ර": 3893,
      "##ා": 3894,
      "##묵": 3895,
      "##화": 3896,
      "##ɭ": 3897,
      "##ʈ": 3898,
      "##ッ": 3899,
      "##ジ": 3900,
      "##ホ": 3901,
      "##グ": 3902,
      "##ϕ": 3903,
      "##茂": 3904,
      "##غ": 3905,
      "##​": 3906,
      "##Ḗ": 3907,
      "##ḏ": 3908,
      "##ē": 3909,
      "##ా": 3910,
      "##డ": 3911,
      "##చ": 3912,
      "##½": 3913,
      "##დ": 3914,
      "##Ω": 3915,
      "##̌": 3916,
      "##ਠ": 3917,
      "##ਡ": 3918,
      "##క": 3919,
      "##భ": 3920,
      "##ד": 3921,
      "##ঈ": 3922,
      "##ঙ": 3923,
      "##月": 3924,
      "##の": 3925,
      "##狂": 3926,
      "##詩": 3927,
      "##曲": 3928,
      "##স": 3929,
      "##থ": 3930,
      "##ვ": 3931,
      "##൭": 3932,
      "##Ἰ": 3933,
      "##ङ": 3934,
      "##ො": 3935,
      "##ළ": 3936,
      "##න": 3937,
      "##්": 3938,
      "##ව": 3939,
      "##鸢": 3940,
      "##尾": 3941,
      "##ત": 3942,
      "##્": 3943,
      "##મ": 3944,
      "##ક": 3945,
      "##થ": 3946,
      "##ҷ": 3947,
      "##ӣ": 3948,
      "##έ": 3949,
      "##ජ": 3950,
      "##ධ": 3951,
      "##越": 3952,
      "##수": 3953,
      "##는": 3954,
      "##چ": 3955,
      "##湯": 3956,
      "##લ": 3957,
      "##ો": 3958,
      "##ƚ": 3959,
      "##ഽ": 3960,
      "##ṭ": 3961,
      "##ɵ": 3962,
      "##다": 3963,
      "##ῑ": 3964,
      "##ˑ": 3965,
      "##ḡ": 3966,
      "##ḇ": 3967,
      "##판": 3968,
      "##Η": 3969,
      "##Μ": 3970,
      "##Τ": 3971,
      "##Ρ": 3972,
      "##Ι": 3973,
      "##Ο": 3974,
      "##Σ": 3975,
      "##ʻ": 3976,
      "##扇": 3977,
      "##ャ": 3978,
      "##ロ": 3979,
      "##ト": 3980,
      "##島": 3981,
      "##ွ": 3982,
      "##ှ": 3983,
      "##ေ": 3984,
      "##တ": 3985,
      "##ိ": 3986,
      "##ဂ": 3987,
      "##ု": 3988,
      "##ံ": 3989,
      "##ဘ": 3990,
      "##ရ": 3991,
      "##ာ": 3992,
      "##း": 3993,
      "##ླ": 3994,
      "##ˮ": 3995,
      "##շ": 3996,
      "##ெ": 3997,
      "##ɖ": 3998,
      "##진": 3999,
      "##강": 4000,
      "##ਨ": 4001,
      "##ਵ": 4002,
      "##િ": 4003,
      "##ન": 4004,
      "##Ê": 4005,
      "##ඟ": 4006,
      "##ⲥ": 4007,
      "##ⲁ": 4008,
      "##ϧ": 4009,
      "##‎": 4010,
      "##ש": 4011,
      "##న": 4012,
      "##య": 4013,
      "##झ": 4014,
      "##ਆ": 4015,
      "##동": 4016,
      "##장": 4017,
      "##ﮭ": 4018,
      "##ظ": 4019,
      "##老": 4020,
      "##虎": 4021,
      "##ܫ": 4022,
      "##ܬ": 4023,
      "##無": 4024,
      "##里": 4025,
      "##శ": 4026,
      "##మ": 4027,
      "##ø": 4028,
      "##ળ": 4029,
      "##ණ": 4030,
      "##ං": 4031,
      "##ක": 4032,
      "##ӥ": 4033,
      "##ൄ": 4034,
      "##ǐ": 4035,
      "##﻿": 4036,
      "##آ": 4037,
      "##צ": 4038,
      "##ח": 4039,
      "##ק": 4040,
      "##岡": 4041,
      "##ٰ": 4042,
      "##飯": 4043,
      "##町": 4044,
      "##أ": 4045,
      "##ҳ": 4046,
      "##ళ": 4047,
      "##ත": 4048,
      "##江": 4049,
      "##ନ": 4050,
      "##୍": 4051,
      "##ଦ": 4052,
      "##ର": 4053,
      "##ж": 4054,
      "##घ": 4055,
      "##̄": 4056,
      "##宋": 4057,
      "##ಚ": 4058,
      "##ɯ": 4059,
      "##猿": 4060,
      "##ਬ": 4061,
      "##蛮": 4062,
      "##美": 4063,
      "##術": 4064,
      "##생": 4065,
      "##ི": 4066,
      "##ང": 4067,
      "##神": 4068,
      "##ʄ": 4069,
      "##海": 4070,
      "##电": 4071,
      "##影": 4072,
      "##制": 4073,
      "##片": 4074,
      "##厂": 4075,
      "##進": 4076,
      "##ῶ": 4077,
      "##”": 4078,
      "##渭": 4079,
      "##ᾶ": 4080,
      "##ऽ": 4081,
      "##ஷ": 4082,
      "##部": 4083,
      "##ÿ": 4084,
      "##ɹ": 4085,
      "##ባ": 4086,
      "##ྲ": 4087,
      "##ֶ": 4088,
      "##ז": 4089,
      "##ֵ": 4090,
      "##ස": 4091,
      "##ܦ": 4092,
      "##ܩ": 4093,
      "##ǔ": 4094,
      "##族": 4095,
      "##文": 4096,
      "##化": 4097,
      "##村": 4098,
      "##カ": 4099,
      "##チ": 4100,
      "##ウ": 4101,
      "##સ": 4102,
      "##შ": 4103,
      "##五": 4104,
      "##雲": 4105,
      "##ִ": 4106,
      "##տ": 4107,
      "##ե": 4108,
      "##մ": 4109,
      "##స": 4110,
      "##వ": 4111,
      "##ృ": 4112,
      "##ష": 4113,
      "##三": 4114,
      "##保": 4115,
      "##和": 4116,
      "##郎": 4117,
      "##კ": 4118,
      "##ʾ": 4119,
      "##ặ": 4120,
      "##漠": 4121,
      "##灣": 4122,
      "##屏": 4123,
      "##ⁿ": 4124,
      "##ô": 4125,
      "##͘": 4126,
      "##൬": 4127,
      "##史": 4128,
      "##ψ": 4129,
      "##ৃ": 4130,
      "##東": 4131,
      "##埔": 4132,
      "##安": 4133,
      "##镇": 4134,
      "##ラ": 4135,
      "##ダ": 4136,
      "##獅": 4137,
      "##頭": 4138,
      "##虫": 4139,
      "##ʎ": 4140,
      "##水": 4141,
      "##長": 4142,
      "##巻": 4143,
      "##ྷ": 4144,
      "##ོ": 4145,
      "##ਓ": 4146,
      "##ῖ": 4147,
      "##ீ": 4148,
      "##ú": 4149,
      "##χ": 4150,
      "##ಥ": 4151,
      "##长": 4152,
      "##征": 4153,
      "##一": 4154,
      "##号": 4155,
      "##문": 4156,
      "##청": 4157,
      "##ྒ": 4158,
      "##堆": 4159,
      "##拉": 4160,
      "##口": 4161,
      "##ஹ": 4162,
      "##ढ": 4163,
      "##达": 4164,
      "##蓉": 4165,
      "##١": 4166,
      "##٥": 4167,
      "##٨": 4168,
      "##अ": 4169,
      "##̍": 4170,
      "##師": 4171,
      "##佛": 4172,
      "##림": 4173,
      "##ទ": 4174,
      "##្": 4175,
      "##យ": 4176,
      "##ា": 4177,
      "##ន": 4178,
      "##ជ": 4179,
      "##ត": 4180,
      "##ិ": 4181,
      "##ព": 4182,
      "##រ": 4183,
      "##ះ": 4184,
      "##ម": 4185,
      "##ុ": 4186,
      "##ី": 4187,
      "##វ": 4188,
      "##ង": 4189,
      "##ស": 4190,
      "##辛": 4191,
      "##隆": 4192,
      "##思": 4193,
      "##ţ": 4194,
      "##絵": 4195,
      "##ੜ": 4196,
      "##学": 4197,
      "##問": 4198,
      "##寺": 4199,
      "##ӏ": 4200,
      "##ಘ": 4201,
      "##ῆ": 4202,
      "##港": 4203,
      "##ପ": 4204,
      "##ଥ": 4205,
      "##č": 4206,
      "##ڠ": 4207,
      "##ڬ": 4208,
      "##ಹ": 4209,
      "##ὔ": 4210,
      "##ê": 4211,
      "##आ": 4212,
      "##ʕ": 4213,
      "##ן": 4214,
      "##幹": 4215,
      "##線": 4216,
      "##気": 4217,
      "##ྤ": 4218,
      "##角": 4219,
      "##洲": 4220,
      "##都": 4221,
      "##區": 4222,
      "##Π": 4223,
      "##ৈ": 4224,
      "##ү": 4225,
      "##ਪ": 4226,
      "##》": 4227,
      "##匹": 4228,
      "##ई": 4229,
      "##ହ": 4230,
      "##년": 4231,
      "##이": 4232,
      "##树": 4233,
      "##斌": 4234,
      "##ß": 4235,
      "##ṫ": 4236,
      "##հ": 4237,
      "##合": 4238,
      "##體": 4239,
      "##官": 4240,
      "##移": 4241,
      "##植": 4242,
      "##條": 4243,
      "##例": 4244,
      "##ં": 4245,
      "##ਮ": 4246,
      "##µ": 4247,
      "##メ": 4248,
      "##ζ": 4249,
      "##ù": 4250,
      "##ۋ": 4251,
      "##‏": 4252,
      "##ğ": 4253,
      "##ູ": 4254,
      "##ұ": 4255,
      "##ܒ": 4256,
      "##천": 4257,
      "##李": 4258,
      "##秀": 4259,
      "##成": 4260,
      "##自": 4261,
      "##述": 4262,
      "##ӟ": 4263,
      "##縣": 4264,
      "##省": 4265,
      "##县": 4266,
      "##ׁ": 4267,
      "##С": 4268,
      "##Р": 4269,
      "##毛": 4270,
      "##球": 4271,
      "##ü": 4272,
      "##Ⲡ": 4273,
      "##ٽ": 4274,
      "##ਉ": 4275,
      "##名": 4276,
      "##ដ": 4277,
      "##»": 4278,
      "##枪": 4279,
      "##լ": 4280,
      "##խ": 4281,
      "##靖": 4282,
      "##昌": 4283,
      "##风": 4284,
      "##兰": 4285,
      "##ܥ": 4286,
      "##ൠ": 4287,
      "##국": 4288,
      "##南": 4289,
      "##华": 4290,
      "##道": 4291,
      "##柿": 4292,
      "##ө": 4293,
      "##兴": 4294,
      "##善": 4295,
      "##宫": 4296,
      "##દ": 4297,
      "##ƒ": 4298,
      "##ḍ": 4299,
      "##আ": 4300,
      "##閩": 4301,
      "##話": 4302,
      "##ూ": 4303,
      "##ऊ": 4304,
      "##इ": 4305,
      "##ॆ": 4306,
      "##环": 4307,
      "##金": 4308,
      "##融": 4309,
      "##中": 4310,
      "##心": 4311,
      "##人": 4312,
      "##ә": 4313,
      "##宿": 4314,
      "##ொ": 4315,
      "##ẽ": 4316,
      "##ઠ": 4317,
      "##ય": 4318,
      "##વ": 4319,
      "##音": 4320,
      "##ᮕ": 4321,
      "##ᮒ": 4322,
      "##ᮦ": 4323,
      "##ᮔ": 4324,
      "##᮪": 4325,
      "##多": 4326,
      "##利": 4327,
      "##亚": 4328,
      "##及": 4329,
      "##会": 4330,
      "##堂": 4331,
      "##³": 4332,
      "##̺": 4333,
      "##っ": 4334,
      "##し": 4335,
      "##ょ": 4336,
      "##い": 4337,
      "##ဝ": 4338,
      "##ါ": 4339,
      "##င": 4340,
      "##်": 4341,
      "##လ": 4342,
      "##န": 4343,
      "##ល": 4344,
      "##ែ": 4345,
      "##ۇ": 4346,
      "##ę": 4347,
      "##本": 4348,
      "##မ": 4349,
      "##္": 4350,
      "##ထ": 4351,
      "##←": 4352,
      "##力": 4353,
      "##車": 4354,
      "##タ": 4355,
      "##病": 4356,
      "##ì": 4357,
      "##火": 4358,
      "##垂": 4359,
      "##る": 4360,
      "##墓": 4361,
      "##ẓ": 4362,
      "##武": 4363,
      "##̈": 4364,
      "##아": 4365,
      "##ಉ": 4366,
      "##ⲟ": 4367,
      "##樣": 4368,
      "##年": 4369,
      "##👩": 4370,
      "##👧": 4371,
      "##ટ": 4372,
      "##ɜ": 4373,
      "##ⁱ": 4374,
      "##ٱ": 4375,
      "##ผ": 4376,
      "##ً": 4377,
      "##î": 4378,
      "##ӝ": 4379,
      "##作": 4380,
      "##サ": 4381,
      "##ヤ": 4382,
      "##ゴ": 4383,
      "##ド": 4384,
      "##孝": 4385,
      "##щ": 4386,
      "##ီ": 4387,
      "##က": 4388,
      "##存": 4389,
      "##హ": 4390,
      "##ེ": 4391,
      "##ད": 4392,
      "##ษ": 4393,
      "##ฎ": 4394,
      "##床": 4395,
      "##ł": 4396,
      "##ⲑ": 4397,
      "##ⲗ": 4398,
      "##ⲕ": 4399,
      "##林": 4400,
      "##ਥ": 4401,
      "##ও": 4402,
      "##∞": 4403,
      "##历": 4404,
      "##ਹ": 4405,
      "##ී": 4406,
      "##军": 4407,
      "##雾": 4408,
      "##대": 4409,
      "##한": 4410,
      "##항": 4411,
      "##공": 4412,
      "##主": 4413,
      "##席": 4414,
      "##錄": 4415,
      "##འ": 4416,
      "##ž": 4417,
      "##共": 4418,
      "##租": 4419,
      "##界": 4420,
      "##夜": 4421,
      "##叉": 4422,
      "##ੋ": 4423,
      "##ਇ": 4424,
      "##ચ": 4425,
      "##ഺ": 4426,
      "##Ṣ": 4427,
      "##ෝ": 4428,
      "##千": 4429,
      "##刀": 4430,
      "##正": 4431,
      "##산": 4432,
      "##ې": 4433,
      "##Ö": 4434,
      "##ॄ": 4435,
      "##Ù": 4436,
      "##ﷲ": 4437,
      "##将": 4438,
      "##ຊ": 4439,
      "##ຍ": 4440,
      "##ະ": 4441,
      "##ບ": 4442,
      "##ລ": 4443,
      "##ີ": 4444,
      "##才": 4445,
      "##պ": 4446,
      "##Л": 4447,
      "##ˤ": 4448,
      "##斤": 4449,
      "##形": 4450,
      "##雪": 4451,
      "##芙": 4452,
      "##澳": 4453,
      "##門": 4454,
      "##歷": 4455,
      "##瑰": 4456,
      "##ฉ": 4457,
      "##落": 4458,
      "##雁": 4459,
      "##…": 4460,
      "##ۍ": 4461,
      "##代": 4462,
      "##எ": 4463,
      "##ף": 4464,
      "##ౌ": 4465,
      "##湖": 4466,
      "##ý": 4467,
      "##ҝ": 4468,
      "##設": 4469,
      "##ɟ": 4470,
      "##ɲ": 4471,
      "##𐤏": 4472,
      "##𐤁": 4473,
      "##𒂵": 4474,
      "##𒌈": 4475,
      "##ግ": 4476,
      "##ሥ": 4477,
      "##ተ": 4478,
      "##九": 4479,
      "##寨": 4480,
      "##沟": 4481,
      "##ൢ": 4482,
      "##주": 4483,
      "##도": 4484,
      "##ณ": 4485,
      "##ฑ": 4486,
      "##ৱ": 4487,
      "##地": 4488,
      "##方": 4489,
      "##不": 4490,
      "##好": 4491,
      "##河": 4492,
      "##博": 4493,
      "##館": 4494,
      "##ధ": 4495,
      "##ಠ": 4496,
      "##ཁ": 4497,
      "##耶": 4498,
      "##夫": 4499,
      "##鎮": 4500,
      "##਼": 4501,
      "##እ": 4502,
      "##ʏ": 4503,
      "##ክ": 4504,
      "##ሱ": 4505,
      "##ም": 4506,
      "##ଣ": 4507,
      "##ଗ": 4508,
      "##秉": 4509,
      "##−": 4510,
      "##ʱ": 4511,
      "##ួ": 4512,
      "##州": 4513,
      "##格": 4514,
      "##吉": 4515,
      "##勒": 4516,
      "##图": 4517,
      "##呼": 4518,
      "##榮": 4519,
      "##は": 4520,
      "##あ": 4521,
      "##た": 4522,
      "##け": 4523,
      "##夕": 4524,
      "##ʔ": 4525,
      "##ź": 4526,
      "##夷": 4527,
      "##פ": 4528,
      "##େ": 4529,
      "##ଳ": 4530,
      "##ଚ": 4531,
      "##ଓ": 4532,
      "##ଡ": 4533,
      "##଼": 4534,
      "##ଆ": 4535,
      "##ஏ": 4536,
      "##龙": 4537,
      "##箏": 4538,
      "##콤": 4539,
      "##ァ": 4540,
      "##ꁌ": 4541,
      "##ꐧ": 4542,
      "##ꃅ": 4543,
      "##十": 4544,
      "##七": 4545,
      "##士": 4546,
      "##û": 4547,
      "##ṅ": 4548,
      "##ḷ": 4549,
      "##ග": 4550,
      "##ֲ": 4551,
      "##ך": 4552,
      "##Φ": 4553,
      "##າ": 4554,
      "##ສ": 4555,
      "##ວ": 4556,
      "##銘": 4557,
      "##漢": 4558,
      "##ム": 4559,
      "##ワ": 4560,
      "##滝": 4561,
      "##特": 4562,
      "##ボ": 4563,
      "##超": 4564,
      "##湾": 4565,
      "##斎": 4566,
      "##汝": 4567,
      "##适": 4568,
      "##ძ": 4569,
      "##ἶ": 4570,
      "##ਛ": 4571,
      "##Κ": 4572,
      "##ས": 4573,
      "##박": 4574,
      "##Б": 4575,
      "##પ": 4576,
      "##બ": 4577,
      "##八": 4578,
      "##景": 4579,
      "##池": 4580,
      "##肉": 4581,
      "##ᨀ": 4582,
      "##ᨔ": 4583,
      "##ᨑ": 4584,
      "##փ": 4585,
      "##ਫ": 4586,
      "##感": 4587,
      "##如": 4588,
      "##是": 4589,
      "##果": 4590,
      "##΄": 4591,
      "##ལ": 4592,
      "##苑": 4593,
      "##ṁ": 4594,
      "##ⲩ": 4595,
      "##ϩ": 4596,
      "##ò": 4597,
      "##≤": 4598,
      "##さ": 4599,
      "##商": 4600,
      "##店": 4601,
      "##街": 4602,
      "##ꅋ": 4603,
      "##ਗ": 4604,
      "##Β": 4605,
      "##គ": 4606,
      "##啟": 4607,
      "##樹": 4608,
      "##徹": 4609,
      "##ັ": 4610,
      "##ດ": 4611,
      "##ພ": 4612,
      "##馬": 4613,
      "##羅": 4614,
      "##ӧ": 4615,
      "##식": 4616,
      "##의": 4617,
      "##韓": 4618,
      "##邪": 4619,
      "##克": 4620,
      "##木": 4621,
      "##碩": 4622,
      "##웅": 4623,
      "##용": 4624,
      "##弗": 4625,
      "##舍": 4626,
      "##支": 4627,
      "##離": 4628,
      "##泥": 4629,
      "##Х": 4630,
      "##ậ": 4631,
      "##紅": 4632,
      "##ॊ": 4633,
      "##壊": 4634,
      "##曆": 4635,
      "##ௌ": 4636,
      "##蘭": 4637,
      "##ভ": 4638,
      "##ষ": 4639,
      "##ଟ": 4640,
      "##ୟ": 4641,
      "##କ": 4642,
      "##љ": 4643,
      "##阜": 4644,
      "##尔": 4645,
      "##余": 4646,
      "##所": 4647,
      "##図": 4648,
      "##孔": 4649,
      "##ク": 4650,
      "##ス": 4651,
      "##ʂ": 4652,
      "##素": 4653,
      "##ਯ": 4654,
      "##ؤ": 4655,
      "##현": 4656,
      "##전": 4657,
      "##鸟": 4658,
      "##छ": 4659,
      "##ષ": 4660,
      "##ⲱ": 4661,
      "##̅": 4662,
      "##ነ": 4663,
      "##ኒ": 4664,
      "##奘": 4665,
      "##ෙ": 4666,
      "##ම": 4667,
      "##富": 4668,
      "##嶽": 4669,
      "##六": 4670,
      "##勇": 4671,
      "##古": 4672,
      "##だ": 4673,
      "##よ": 4674,
      "##ේ": 4675,
      "##圆": 4676,
      "##桂": 4677,
      "##政": 4678,
      "##ـ": 4679,
      "##ќ": 4680,
      "##府": 4681,
      "##台": 4682,
      "##ओ": 4683,
      "##蟲": 4684,
      "##霊": 4685,
      "##拜": 4686,
      "##仙": 4687,
      "##宝": 4688,
      "##ນ": 4689,
      "##Α": 4690,
      "##Е": 4691,
      "##返": 4692,
      "##ま": 4693,
      "##せ": 4694,
      "##ぬ": 4695,
      "##か": 4696,
      "##ら": 4697,
      "##ʐ": 4698,
      "##ᨚ": 4699,
      "##ᨈ": 4700,
      "##農": 4701,
      "##業": 4702,
      "##ὠ": 4703,
      "##ೈ": 4704,
      "##市": 4705,
      "##裏": 4706,
      "##惟": 4707,
      "##庸": 4708,
      "##信": 4709,
      "##ਘ": 4710,
      "##哳": 4711,
      "##•": 4712,
      "##̓": 4713,
      "##恋": 4714,
      "##歌": 4715,
      "##ஞ": 4716,
      "##鶏": 4717,
      "##ẚ": 4718,
      "##辭": 4719,
      "##라": 4720,
      "##世": 4721,
      "##贤": 4722,
      "##̰": 4723,
      "##岩": 4724,
      "##જ": 4725,
      "##マ": 4726,
      "##੍": 4727,
      "##ὑ": 4728,
      "##̂": 4729,
      "##夏": 4730,
      "##ᑕ": 4731,
      "##ᔪ": 4732,
      "##ᓕ": 4733,
      "##ᒃ": 4734,
      "##—": 4735,
      "##登": 4736,
      "##封": 4737,
      "##ˀ": 4738,
      "##설": 4739,
      "##ⲅ": 4740,
      "##ⲡ": 4741,
      "##照": 4742,
      "##フ": 4743,
      "##株": 4744,
      "##式": 4745,
      "##齐": 4746,
      "##斯": 4747,
      "##怡": 4748,
      "##石": 4749,
      "##窟": 4750,
      "##游": 4751,
      "##ୂ": 4752,
      "##迟": 4753,
      "##浅": 4754,
      "##ୌ": 4755,
      "##ଧ": 4756,
      "##Ḥ": 4757,
      "##日": 4758,
      "##平": 4759,
      "##ꦺ": 4760,
      "##ꦮ": 4761,
      "##ꦶ": 4762,
      "##ꦱ": 4763,
      "##ꦿ": 4764,
      "##Ά": 4765,
      "##蟇": 4766,
      "##油": 4767,
      "##ۃ": 4768,
      "##В": 4769,
      "##П": 4770,
      "##衹": 4771,
      "##愿": 4772,
      "##跟": 4773,
      "##唐": 4774,
      "##爺": 4775,
      "##到": 4776,
      "##讀": 4777,
      "##書": 4778,
      "##ཏ": 4779,
      "##福": 4780,
      "##瑱": 4781,
      "##联": 4782,
      "##技": 4783,
      "##术": 4784,
      "##খ": 4785,
      "##軍": 4786,
      "##ਝ": 4787,
      "##畫": 4788,
      "##ܕ": 4789,
      "##ܼ": 4790,
      "##ܪ": 4791,
      "##ƶ": 4792,
      "##Ġ": 4793,
      "##坛": 4794,
      "##ї": 4795,
      "##임": 4796,
      "##ち": 4797,
      "##勳": 4798,
      "##Ⲧ": 4799,
      "##Ⲑ": 4800,
      "##Λ": 4801,
      "##娡": 4802,
      "##郡": 4803,
      "##ფ": 4804,
      "##筆": 4805,
      "##墨": 4806,
      "##画": 4807,
      "##ધ": 4808,
      "##陵": 4809,
      "##书": 4810,
      "##ყ": 4811,
      "##ჯ": 4812,
      "##̇": 4813,
      "##ノ": 4814,
      "##宮": 4815,
      "##遺": 4816,
      "##跡": 4817,
      "##浦": 4818,
      "##製": 4819,
      "##笔": 4820,
      "##ખ": 4821,
      "##用": 4822,
      "##重": 4823,
      "##典": 4824,
      "##ں": 4825,
      "##空": 4826,
      "##申": 4827,
      "##ὰ": 4828,
      "##卿": 4829,
      "##И": 4830,
      "##З": 4831,
      "##Ҝ": 4832,
      "##什": 4833,
      "##ူ": 4834,
      "##ျ": 4835,
      "##ပ": 4836,
      "##ြ": 4837,
      "##ဇ": 4838,
      "##ϯ": 4839,
      "##禎": 4840,
      "##ൎ": 4841,
      "##穂": 4842,
      "##ሠ": 4843,
      "##ፋ": 4844,
      "##ニ": 4845,
      "##̆": 4846,
      "##阁": 4847,
      "##距": 4848,
      "##塔": 4849,
      "##로": 4850,
      "##𐎓": 4851,
      "##𐎍": 4852,
      "##ң": 4853,
      "##兒": 4854,
      "##】": 4855,
      "##ৎ": 4856,
      "##洞": 4857,
      "##ἲ": 4858,
      "##崎": 4859,
      "##雨": 4860,
      "##房": 4861,
      "##四": 4862,
      "##寶": 4863,
      "##ហ": 4864,
      "##ງ": 4865,
      "##熹": 4866,
      "##ք": 4867,
      "##鳥": 4868,
      "##獣": 4869,
      "##戯": 4870,
      "##“": 4871,
      "##禁": 4872,
      "##●": 4873,
      "##–": 4874,
      "##అ": 4875,
      "##౦": 4876,
      "##ំ": 4877,
      "##ូ": 4878,
      "##េ": 4879,
      "##津": 4880,
      "##嵐": 4881,
      "##彦": 4882,
      "##宏": 4883,
      "##康": 4884,
      "##菊": 4885,
      "##花": 4886,
      "##̪": 4887,
      "##ມ": 4888,
      "##ཇ": 4889,
      "##Э": 4890,
      "##松": 4891,
      "##ꦧ": 4892,
      "##ꦸ": 4893,
      "##ў": 4894,
      "##ἀ": 4895,
      "##Ж": 4896,
      "##Д": 4897,
      "##漫": 4898,
      "##蕉": 4899,
      "##õ": 4900,
      "##Ñ": 4901,
      "##අ": 4902,
      "##හ": 4903,
      "##园": 4904,
      "##盈": 4905,
      "##ۂ": 4906,
      "##ڌ": 4907,
      "##ぐ": 4908,
      "##や": 4909,
      "##姫": 4910,
      "##足": 4911,
      "##͗": 4912,
      "##빠": 4913,
      "##ʀ": 4914,
      "##ซ": 4915,
      "##姿": 4916,
      "##豐": 4917,
      "##開": 4918,
      "##発": 4919,
      "##法": 4920,
      "##宇": 4921,
      "##宙": 4922,
      "##航": 4923,
      "##機": 4924,
      "##構": 4925,
      "##랍": 4926,
      "##어": 4927,
      "##意": 4928,
      "##ଉ": 4929,
      "##ଲ": 4930,
      "##庶": 4931,
      "##ザ": 4932,
      "##ঝ": 4933,
      "##蒼": 4934,
      "##წ": 4935,
      "##ֆ": 4936,
      "##ꦛ": 4937,
      "##ꦩ": 4938,
      "##ꦭ": 4939,
      "##ꦁ": 4940,
      "##ට": 4941,
      "##ఠ": 4942,
      "##ɰ": 4943,
      "##ܰ": 4944,
      "##ܳ": 4945,
      "##ܗ": 4946,
      "##ủ": 4947,
      "##造": 4948,
      "##ৌ": 4949,
      "##井": 4950,
      "##晩": 4951,
      "##鐘": 4952,
      "##鹿": 4953,
      "##硕": 4954,
      "##�": 4955,
      "##行": 4956,
      "##死": 4957,
      "##刑": 4958,
      "##規": 4959,
      "##則": 4960,
      "##ਚ": 4961,
      "##ྟ": 4962,
      "##燕": 4963,
      "##Н": 4964,
      "##鳩": 4965,
      "##簿": 4966,
      "##ై": 4967,
      "##ﾟ": 4968,
      "##に": 4969,
      "##ާ": 4970,
      "##ލ": 4971,
      "##ެ": 4972,
      "##殺": 4973,
      "##央": 4974,
      "##ѐ": 4975,
      "##ਭ": 4976,
      "##具": 4977,
      "##軽": 4978,
      "##峡": 4979,
      "##²": 4980,
      "##ń": 4981,
      "##ア": 4982,
      "##ナ": 4983,
      "##ٗ": 4984,
      "##坝": 4985,
      "##孟": 4986,
      "##昶": 4987,
      "##廳": 4988,
      "##ş": 4989,
      "##Ӏ": 4990,
      "##臺": 4991,
      "##始": 4992,
      "##め": 4993,
      "##異": 4994,
      "##生": 4995,
      "##活": 4996,
      "##Ґ": 4997,
      "##座": 4998,
      "##慶": 4999,
      "##ꦫ": 5000,
      "##ꦠ": 5001,
      "##ꦴ": 5002,
      "##ꦤ": 5003,
      "##꧀": 5004,
      "##ꦗ": 5005,
      "##ꦥ": 5006,
      "##ꦲ": 5007,
      "##ʑ": 5008,
      "##縱": 5009,
      "##纵": 5010,
      "##ʉ": 5011,
      "##ꦪ": 5012,
      "##원": 5013,
      "##犁": 5014,
      "##百": 5015,
      "##工": 5016,
      "##ᾱ": 5017,
      "##聪": 5018,
      "##ș": 5019,
      "##٠": 5020,
      "##白": 5021,
      "##圖": 5022,
      "##者": 5023,
      "##트": 5024,
      "##리": 5025,
      "##스": 5026,
      "##印": 5027,
      "##邊": 5028,
      "##境": 5029,
      "##戰": 5030,
      "##爭": 5031,
      "##ქ": 5032,
      "##函": 5033,
      "##隧": 5034,
      "##վ": 5035,
      "##ɥ": 5036,
      "##哈": 5037,
      "##尼": 5038,
      "##梯": 5039,
      "##遗": 5040,
      "##功": 5041,
      "##必": 5042,
      "##烈": 5043,
      "##ુ": 5044,
      "##ઘ": 5045,
      "##次": 5046,
      "##ົ": 5047,
      "##ກ": 5048,
      "##ܓ": 5049,
      "##御": 5050,
      "##ﮩ": 5051,
      "##時": 5052,
      "##战": 5053,
      "##时": 5054,
      "##ღ": 5055,
      "##ফ": 5056,
      "##命": 5057,
      "##ಅ": 5058,
      "##俪": 5059,
      "##な": 5060,
      "##ﺮ": 5061,
      "##ﻳ": 5062,
      "##ﻨ": 5063,
      "##ﻐ": 5064,
      "##ﻜ": 5065,
      "##ﻢ": 5066,
      "##魯": 5067,
      "##閣": 5068,
      "##れ": 5069,
      "##字": 5070,
      "##ຣ": 5071,
      "##Ϥ": 5072,
      "##Ϧ": 5073,
      "##Ϭ": 5074,
      "##Ϫ": 5075,
      "##Ϩ": 5076,
      "##Ϯ": 5077,
      "##婦": 5078,
      "##ȯ": 5079,
      "##巴": 5080,
      "##હ": 5081,
      "##腦": 5082,
      "##貴": 5083,
      "##微": 5084,
      "##右": 5085,
      "##垣": 5086,
      "##ˁ": 5087,
      "##ఫ": 5088,
      "##ῡ": 5089,
      "##ҡ": 5090,
      "##良": 5091,
      "##暮": 5092,
      "##二": 5093,
      "##哲": 5094,
      "##란": 5095,
      "##季": 5096,
      "##眠": 5097,
      "##て": 5098,
      "##Æ": 5099,
      "##々": 5100,
      "##ὐ": 5101,
      "##ﺎ": 5102,
      "##ﻍ": 5103,
      "##く": 5104,
      "##ざ": 5105,
      "##把": 5106,
      "##西": 5107,
      "##ඩ": 5108,
      "##័": 5109,
      "##Т": 5110,
      "##О": 5111,
      "##蓮": 5112,
      "##ɳ": 5113,
      "##ĩ": 5114,
      "##ፍ": 5115,
      "##አ": 5116,
      "##駿": 5117,
      "##头": 5118,
      "##言": 5119,
      "##葉": 5120,
      "##ⲃ": 5121,
      "##也": 5122,
      "##回": 5123,
      "##去": 5124,
      "##了": 5125,
      "##ራ": 5126,
      "##ር": 5127,
      "##ቱ": 5128,
      "##ソ": 5129,
      "##デ": 5130,
      "##ィ": 5131,
      "##亮": 5132,
      "##霍": 5133,
      "##È": 5134,
      "##ᕐ": 5135,
      "##ᑭ": 5136,
      "##ᒡ": 5137,
      "##ᒋ": 5138,
      "##ᖅ": 5139,
      "##ǜ": 5140,
      "##ג": 5141,
      "##œ": 5142,
      "##̋": 5143,
      "##ಖ": 5144,
      "##°": 5145,
      "##輿": 5146,
      "##ە": 5147,
      "##ϑ": 5148,
      "##К": 5149,
      "##腾": 5150,
      "##̧": 5151,
      "##牛": 5152,
      "##蔣": 5153,
      "##志": 5154,
      "##红": 5155,
      "##ꦏ": 5156,
      "##橫": 5157,
      "##连": 5158,
      "##横": 5159,
      "##避": 5160,
      "##暑": 5161,
      "##庄": 5162,
      "##উ": 5163,
      "##瀾": 5164,
      "##ᡠ": 5165,
      "##婆": 5166,
      "##傳": 5167,
      "##オ": 5168,
      "##仁": 5169,
      "##玕": 5170,
      "##通": 5171,
      "##梨": 5172,
      "##見": 5173,
      "##菩": 5174,
      "##薩": 5175,
      "##Ø": 5176,
      "##明": 5177,
      "##産": 5178,
      "##動": 5179,
      "##ៀ": 5180,
      "##橋": 5181,
      "##帰": 5182,
      "##帆": 5183,
      "##나": 5184,
      "##니": 5185,
      "##录": 5186,
      "##ኽ": 5187,
      "##ಭ": 5188,
      "##ő": 5189,
      "##글": 5190,
      "##學": 5191,
      "##氏": 5192,
      "##壁": 5193,
      "##沙": 5194,
      "##殿": 5195,
      "##ĝ": 5196,
      "##˨": 5197,
      "##ఒ": 5198,
      "##治": 5199,
      "##һ": 5200,
      "##淑": 5201,
      "##ồ": 5202,
      "##戸": 5203,
      "##澤": 5204,
      "##想": 5205,
      "##ܟ": 5206,
      "##珠": 5207,
      "##传": 5208,
      "##ਈ": 5209,
      "##ඇ": 5210,
      "##ሩ": 5211,
      "##ሽ": 5212,
      "##室": 5213,
      "##Ψ": 5214,
      "##성": 5215,
      "##ҙ": 5216,
      "##ჟ": 5217,
      "##様": 5218,
      "##ヨ": 5219,
      "##ໍ": 5220,
      "##້": 5221,
      "##も": 5222,
      "##樓": 5223,
      "##夢": 5224,
      "##ٌ": 5225,
      "##当": 5226,
      "##集": 5227,
      "##墟": 5228,
      "##秋": 5229,
      "##ῳ": 5230,
      "##関": 5231,
      "##朝": 5232,
      "##陽": 5233,
      "##ӵ": 5234,
      "##泰": 5235,
      "##谷": 5236,
      "##脉": 5237,
      "##鉄": 5238,
      "##雅": 5239,
      "##上": 5240,
      "##婺": 5241,
      "##源": 5242,
      "##ҹ": 5243,
      "##春": 5244,
      "##ஔ": 5245,
      "##𒊒": 5246,
      "##間": 5247,
      "##ຼ": 5248,
      "##간": 5249,
      "##ଂ": 5250,
      "##ଯ": 5251,
      "##条": 5252,
      "##派": 5253,
      "##邑": 5254,
      "##བ": 5255,
      "##ả": 5256,
      "##宗": 5257,
      "##非": 5258,
      "##♟": 5259,
      "##孫": 5260,
      "##腥": 5261,
      "##期": 5262,
      "##️": 5263,
      "##鼠": 5264,
      "##狼": 5265,
      "##ճ": 5266,
      "##謹": 5267,
      "##忙": 5268,
      "##ྫ": 5269,
      "##미": 5270,
      "##취": 5271,
      "##衛": 5272,
      "##资": 5273,
      "##峻": 5274,
      "##眾": 5275,
      "##ṉ": 5276,
      "##汉": 5277,
      "##Ṭ": 5278,
      "##建": 5279,
      "##庆": 5280,
      "##森": 5281,
      "##బ": 5282,
      "##∂": 5283,
      "##ネ": 5284,
      "##ɮ": 5285,
      "##ὶ": 5286,
      "##壤": 5287,
      "##飾": 5288,
      "##北": 5289,
      "##կ": 5290,
      "##ઇ": 5291,
      "##ὴ": 5292,
      "##淮": 5293,
      "##興": 5294,
      "##宁": 5295,
      "##ڙ": 5296,
      "##ڪ": 5297,
      "##ڻ": 5298,
      "##章": 5299,
      "##।": 5300,
      "##勢": 5301,
      "##型": 5302,
      "##紙": 5303,
      "##𐎾": 5304,
      "##𐎧": 5305,
      "##奈": 5306,
      "##沖": 5307,
      "##浪": 5308,
      "##皇": 5309,
      "##ﯩ": 5310,
      "##ﻪ": 5311,
      "##那": 5312,
      "##ĺ": 5313,
      "##ٓ": 5314,
      "##Ь": 5315,
      "##Я": 5316,
      "##槍": 5317,
      "##食": 5318,
      "##ṟ": 5319,
      "##Δ": 5320,
      "##因": 5321,
      "##原": 5322,
      "##洋": 5323,
      "##ܚ": 5324,
      "##ૂ": 5325,
      "##ਧ": 5326,
      "##⁠": 5327,
      "##寅": 5328,
      "##鸡": 5329,
      "##徐": 5330,
      "##Χ": 5331,
      "##반": 5332,
      "##ૅ": 5333,
      "##ὀ": 5334,
      "##Θ": 5335,
      "##贵": 5336,
      "##舞": 5337,
      "##伎": 5338,
      "##ǵ": 5339,
      "##小": 5340,
      "##荣": 5341,
      "##ཞ": 5342,
      "##民": 5343,
      "##党": 5344,
      "##卡": 5345,
      "##ズ": 5346,
      "##眼": 5347,
      "##≥": 5348,
      "##母": 5349,
      "##태": 5350,
      "##권": 5351,
      "##琪": 5352,
      "##万": 5353,
      "##剐": 5354,
      "##ښ": 5355,
      "##ひ": 5356,
      "##伝": 5357,
      "##う": 5358,
      "##Ü": 5359,
      "##ΰ": 5360,
      "##伴": 5361,
      "##納": 5362,
      "##詞": 5363,
      "##兆": 5364,
      "##藍": 5365,
      "##递": 5366,
      "##ⴷ": 5367,
      "##ⵓ": 5368,
      "##ⵔ": 5369,
      "##ờ": 5370,
      "##ٛ": 5371,
      "##ġ": 5372,
      "##腳": 5373,
      "##ཚ": 5374,
      "##̲": 5375,
      "##付": 5376,
      "##毓": 5377,
      "##边": 5378,
      "##争": 5379,
      "##目": 5380,
      "##楼": 5381,
      "##梦": 5382,
      "##ఖ": 5383,
      "##︢": 5384,
      "##ଇ": 5385,
      "##清": 5386,
      "##船": 5387,
      "##芬": 5388,
      "##ማ": 5389,
      "##ኛ": 5390,
      "##荼": 5391,
      "##こ": 5392,
      "##と": 5393,
      "##ạ": 5394,
      "##ჩ": 5395,
      "##架": 5396,
      "##袖": 5397,
      "##之": 5398,
      "##癖": 5399,
      "##瑤": 5400,
      "##璧": 5401,
      "##庙": 5402,
      "##ᠺ": 5403,
      "##ᠥ": 5404,
      "##ᠭ": 5405,
      "##ᠰ": 5406,
      "##ᠢ": 5407,
      "##ᠲ": 5408,
      "##ᠦ": 5409,
      "##滿": 5410,
      "##시": 5411,
      "##붓": 5412,
      "##꽃": 5413,
      "##ભ": 5414,
      "##霧": 5415,
      "##ɻ": 5416,
      "##び": 5417,
      "##￼": 5418,
      "##辰": 5419,
      "##齊": 5420,
      "##ት": 5421,
      "##ዮ": 5422,
      "##ጵ": 5423,
      "##ያ": 5424,
      "##ന്": 5425,
      "##ത്": 5426,
      "##ക്": 5427,
      "##ന്ന": 5428,
      "##ക്ക": 5429,
      "##ത്ത": 5430,
      "##്ട": 5431,
      "##ും": 5432,
      "##യി": 5433,
      "##്ര": 5434,
      "##ുന്ന": 5435,
      "##്പ": 5436,
      "##ങ്": 5437,
      "##്യ": 5438,
      "##ില": 5439,
      "##ിയ": 5440,
      "##ച്": 5441,
      "##മാ": 5442,
      "##സ്": 5443,
      "##റ്": 5444,
      "##പ്പ": 5445,
      "##ങ്ങ": 5446,
      "##ണ്": 5447,
      "##ട്ട": 5448,
      "##ിക്ക": 5449,
      "##ിൽ": 5450,
      "##ച്ച": 5451,
      "##ണ്ട": 5452,
      "##ുക": 5453,
      "##തി": 5454,
      "##ുട": 5455,
      "##റ്റ": 5456,
      "##ള്": 5457,
      "പ്ര": 5458,
      "##ിന്": 5459,
      "##രു": 5460,
      "##ുന്നു": 5461,
      "##റെ": 5462,
      "##ാര": 5463,
      "##ിച്ച": 5464,
      "##ള്ള": 5465,
      "##ത്ര": 5466,
      "##ിക": 5467,
      "##ാന": 5468,
      "##്ല": 5469,
      "##ാണ്": 5470,
      "##ായി": 5471,
      "##ുടെ": 5472,
      "എന്ന": 5473,
      "##ങ്ങള": 5474,
      "##െയ": 5475,
      "##ുള്ള": 5476,
      "##ിന": 5477,
      "##ായ": 5478,
      "##ദ്": 5479,
      "വി": 5480,
      "##ാല": 5481,
      "സ്": 5482,
      "##ിന്റെ": 5483,
      "##വി": 5484,
      "##പ്പെ": 5485,
      "##ിര": 5486,
      "##ഞ്": 5487,
      "##യും": 5488,
      "##രി": 5489,
      "##ടു": 5490,
      "##്‍": 5491,
      "##ക്ക്": 5492,
      "ഒരു": 5493,
      "##ക്ഷ": 5494,
      "##യില": 5495,
      "##ങ്ങൾ": 5496,
      "##മായി": 5497,
      "##ാമ": 5498,
      "##ാർ": 5499,
      "##ദേ": 5500,
      "##ാവ": 5501,
      "##ണ്ട്": 5502,
      "##ത്തിൽ": 5503,
      "##യിൽ": 5504,
      "##ത്തില": 5505,
      "നി": 5506,
      "##തു": 5507,
      "##ാൻ": 5508,
      "##ിവ": 5509,
      "##രുന്നു": 5510,
      "##ത്യ": 5511,
      "##മായ": 5512,
      "മു": 5513,
      "##ല്ല": 5514,
      "##മ്പ": 5515,
      "##ംഗ": 5516,
      "##ങ്ക": 5517,
      "അവ": 5518,
      "##വും": 5519,
      "ചെയ": 5520,
      "##്മ": 5521,
      "##േര": 5522,
      "##ദ്ധ": 5523,
      "##ുവ": 5524,
      "##ോഗ": 5525,
      "##ാം": 5526,
      "##മാണ്": 5527,
      "##ിക്കുന്ന": 5528,
      "##ുറ": 5529,
      "##ാസ": 5530,
      "##ാണ": 5531,
      "##ത്തിന്റെ": 5532,
      "19": 5533,
      "##ത്തെ": 5534,
      "##ിച്ചു": 5535,
      "##ദ്യ": 5536,
      "##േഷ": 5537,
      "##കര": 5538,
      "സം": 5539,
      "##ുകള": 5540,
      "##റ്റ്": 5541,
      "##ടി": 5542,
      "##ർത്ത": 5543,
      "##ത്ത്": 5544,
      "##ഞ്ഞ": 5545,
      "##ന്ന്": 5546,
      "##കള": 5547,
      "##ാക്ക": 5548,
      "##നു": 5549,
      "##ാഗ": 5550,
      "##മ്മ": 5551,
      "##ാപ": 5552,
      "##്വ": 5553,
      "##ച്ച്": 5554,
      "##സി": 5555,
      "##പ്പെട": 5556,
      "##ിലെ": 5557,
      "##ദ്ദേ": 5558,
      "##ണം": 5559,
      "##സ്ഥ": 5560,
      "##ന്റെ": 5561,
      "മാ": 5562,
      "##ട്ടു": 5563,
      "##ഡ്": 5564,
      "##ില്ല": 5565,
      "##നി": 5566,
      "##യുടെ": 5567,
      "പു": 5568,
      "കൊ": 5569,
      "##ന്ത": 5570,
      "##ോട": 5571,
      "##യ്": 5572,
      "##ാജ": 5573,
      "സ്ഥ": 5574,
      "##ുകൾ": 5575,
      "##മു": 5576,
      "##ിലും": 5577,
      "##നം": 5578,
      "##യിലെ": 5579,
      "##00": 5580,
      "##ാട": 5581,
      "കൂ": 5582,
      "##ാൽ": 5583,
      "##റിയ": 5584,
      "##ദ്ദേഹ": 5585,
      "##ിപ്പ": 5586,
      "##ന്നു": 5587,
      "##രം": 5588,
      "##ാധ": 5589,
      "കോ": 5590,
      "##ുന്നത്": 5591,
      "##ാള": 5592,
      "നട": 5593,
      "##പ്ര": 5594,
      "##ുകയും": 5595,
      "##ടുത്ത": 5596,
      "##ത്തിന": 5597,
      "##റി": 5598,
      "##ാത": 5599,
      "പി": 5600,
      "തുട": 5601,
      "ഉപ": 5602,
      "##ായിരുന്നു": 5603,
      "##ികള": 5604,
      "##രെ": 5605,
      "##ിത്ര": 5606,
      "കു": 5607,
      "##ഷ്": 5608,
      "##ാക": 5609,
      "##ന്ദ": 5610,
      "##തിന": 5611,
      "സ്വ": 5612,
      "##ഞ്ച": 5613,
      "##ക്കു": 5614,
      "##ാഷ": 5615,
      "##ിക്കുന്നു": 5616,
      "##പ്പെട്ട": 5617,
      "##രുന്ന": 5618,
      "##ാസ്": 5619,
      "##ദേശ": 5620,
      "##ള്‍": 5621,
      "ചെയ്": 5622,
      "##ര്‍": 5623,
      "പോ": 5624,
      "##ന്നും": 5625,
      "##ിത": 5626,
      "##ാറ": 5627,
      "##ധാന": 5628,
      "##കൾ": 5629,
      "##ൂർ": 5630,
      "##ീയ": 5631,
      "##ത്തിലെ": 5632,
      "##കാര": 5633,
      "##ാഹ": 5634,
      "ചെയ്യ": 5635,
      "##ലി": 5636,
      "ജന": 5637,
      "അദ്ദേഹ": 5638,
      "##ടെ": 5639,
      "##ന്ധ": 5640,
      "വെ": 5641,
      "വ്യ": 5642,
      "##ങ്ങളിൽ": 5643,
      "##യോഗ": 5644,
      "##തിയ": 5645,
      "##ാശ": 5646,
      "ഇന്": 5647,
      "##മി": 5648,
      "##സ്ത": 5649,
      "##ണ്ണ": 5650,
      "##റ്റി": 5651,
      "##ത്തി": 5652,
      "##ോൾ": 5653,
      "ചെ": 5654,
      "##മെ": 5655,
      "എന്നിവ": 5656,
      "ഗ്ര": 5657,
      "##ീകര": 5658,
      "##ാദ": 5659,
      "നേ": 5660,
      "നിർ": 5661,
      "സമ": 5662,
      "രാജ": 5663,
      "##്യൂ": 5664,
      "##ട്ട്": 5665,
      "വേ": 5666,
      "##സം": 5667,
      "##വർത്ത": 5668,
      "##ഫ്": 5669,
      "##ിയുടെ": 5670,
      "##ഴ്": 5671,
      "മൂ": 5672,
      "##ന്ത്ര": 5673,
      "##സ്ഥാന": 5674,
      "ഇന്ത്യ": 5675,
      "##ോർ": 5676,
      "##ജ്": 5677,
      "##രണ": 5678,
      "##േശ": 5679,
      "##ികൾ": 5680,
      "ചിത്ര": 5681,
      "##െങ്ക": 5682,
      "##ോള": 5683,
      "പര": 5684,
      "ഇവ": 5685,
      "##ൂപ": 5686,
      "##ർഷ": 5687,
      "##മുള്ള": 5688,
      "##ാന്": 5689,
      "ഉപയോഗ": 5690,
      "ആദ്യ": 5691,
      "##്യം": 5692,
      "20": 5693,
      "##ത്തിന്": 5694,
      "സി": 5695,
      "##ക്കി": 5696,
      "##ക്ര": 5697,
      "കാണ": 5698,
      "##ങ്ങളും": 5699,
      "പരി": 5700,
      "##ട്ടി": 5701,
      "സെ": 5702,
      "##്രി": 5703,
      "##യം": 5704,
      "##യു": 5705,
      "##ിച്ചിര": 5706,
      "##ങ്ങിയ": 5707,
      "##ന്നെ": 5708,
      "##ീവ": 5709,
      "ശ്ര": 5710,
      "##തൽ": 5711,
      "##േഖ": 5712,
      "കാല": 5713,
      "നില": 5714,
      "##സ്റ്റ": 5715,
      "കഴ": 5716,
      "##യാണ്": 5717,
      "പ്രധാന": 5718,
      "തെ": 5719,
      "##ഗ്": 5720,
      "##ബ്": 5721,
      "##ീര": 5722,
      "##ക്കും": 5723,
      "##ണ്ടു": 5724,
      "##ണി": 5725,
      "##യെ": 5726,
      "##സ്സ": 5727,
      "##ന്ദ്ര": 5728,
      "##നെ": 5729,
      "പറ": 5730,
      "##ിച്ച്": 5731,
      "കി": 5732,
      "##രിക്ക": 5733,
      "മല": 5734,
      "##ോക": 5735,
      "വള": 5736,
      "##ങ്ങളുടെ": 5737,
      "##രുടെ": 5738,
      "##േർ": 5739,
      "##ലിയ": 5740,
      "ആണ്": 5741,
      "##ക്കുന്ന": 5742,
      "കുറ": 5743,
      "##ിന്ന്": 5744,
      "##ില്‍": 5745,
      "ഇത്": 5746,
      "##ഴു": 5747,
      "##ട്ടുണ്ട്": 5748,
      "##പ്": 5749,
      "##ഷ്യ": 5750,
      "മറ്റ": 5751,
      "ഉണ്ട": 5752,
      "##േരള": 5753,
      "##്ട്ര": 5754,
      "ഏറ്റ": 5755,
      "##ത്തു": 5756,
      "##ിക്കുന്നത്": 5757,
      "##മേ": 5758,
      "201": 5759,
      "സു": 5760,
      "ക്": 5761,
      "##ൽക": 5762,
      "##േക്ക്": 5763,
      "##പ്പെടുന്നു": 5764,
      "പേര": 5765,
      "##ലെ": 5766,
      "കേരള": 5767,
      "##ക്ത": 5768,
      "പെ": 5769,
      "##ഖ്യ": 5770,
      "കാര": 5771,
      "##ോമ": 5772,
      "സർ": 5773,
      "നിര": 5774,
      "വിശ": 5775,
      "##റു": 5776,
      "##ത്സ": 5777,
      "##മാന": 5778,
      "നിയ": 5779,
      "അദ്ദേഹം": 5780,
      "അമ": 5781,
      "അഭ": 5782,
      "പ്രവർത്ത": 5783,
      "18": 5784,
      "തിര": 5785,
      "##വർ": 5786,
      "##ടിയ": 5787,
      "അതി": 5788,
      "##ീറ്റ": 5789,
      "ഭാഗ": 5790,
      "##ഭാഗ": 5791,
      "##ത്രം": 5792,
      "##ിനെ": 5793,
      "ചെയ്തു": 5794,
      "##ുദ്ധ": 5795,
      "##ശ്": 5796,
      "##ത്തിനു": 5797,
      "ലഭ": 5798,
      "##െയും": 5799,
      "നൽക": 5800,
      "##ലം": 5801,
      "##േഷം": 5802,
      "പ്രതി": 5803,
      "##വു": 5804,
      "200": 5805,
      "വീ": 5806,
      "രൂപ": 5807,
      "പൊ": 5808,
      "##വര": 5809,
      "##ഷ്ട": 5810,
      "##േയും": 5811,
      "പുറ": 5812,
      "സഹ": 5813,
      "ആയി": 5814,
      "##ിതി": 5815,
      "നീ": 5816,
      "##താണ്": 5817,
      "കേ": 5818,
      "##ാത്ത": 5819,
      "സാധ": 5820,
      "##ുണ്ട്": 5821,
      "##ിമ": 5822,
      "ക്ഷ": 5823,
      "നിന്ന്": 5824,
      "##തല": 5825,
      "ഏറ്റവും": 5826,
      "##ന്മാ": 5827,
      "##പ്പെടുത്ത": 5828,
      "##വേ": 5829,
      "##ബർ": 5830,
      "##ിയും": 5831,
      "##ട്": 5832,
      "##ോട്ട": 5833,
      "##ഡി": 5834,
      "കൃ": 5835,
      "##കാല": 5836,
      "നിന്നും": 5837,
      "മെ": 5838,
      "##ിച്ചത്": 5839,
      "##ിരു": 5840,
      "##ഗ്ര": 5841,
      "പല": 5842,
      "##ീന": 5843,
      "വര": 5844,
      "##ത്തിയ": 5845,
      "##വം": 5846,
      "##ന്റ": 5847,
      "##ാൾ": 5848,
      "##ാട്ട": 5849,
      "##െടു": 5850,
      "വൈ": 5851,
      "ഇവി": 5852,
      "##വിത": 5853,
      "##ോവ": 5854,
      "അത": 5855,
      "##ച്ചു": 5856,
      "##ാതെ": 5857,
      "ചില": 5858,
      "##ാത്ര": 5859,
      "##പി": 5860,
      "തുടങ്ങിയ": 5861,
      "##കു": 5862,
      "##പു": 5863,
      "##മായിരുന്നു": 5864,
      "##ൂര": 5865,
      "അനു": 5866,
      "##ർശ": 5867,
      "##ക്ട": 5868,
      "##ശ്യ": 5869,
      "##പ്പെടുന്ന": 5870,
      "##യോ": 5871,
      "##സ്റ്റ്": 5872,
      "##െങ്കിലും": 5873,
      "##ത്ഥ": 5874,
      "ഡി": 5875,
      "ജോ": 5876,
      "##ായിരുന്ന": 5877,
      "തന്നെ": 5878,
      "##ാസ്ത്ര": 5879,
      "പ്രദേശ": 5880,
      "##കൃ": 5881,
      "കുട": 5882,
      "##യാള": 5883,
      "##ന്റ്": 5884,
      "##തും": 5885,
      "പിന്ന": 5886,
      "##പ്പ്": 5887,
      "##ങ്ങളെ": 5888,
      "##നായ": 5889,
      "മുതൽ": 5890,
      "##ജി": 5891,
      "##ധിക": 5892,
      "##ക്കാര": 5893,
      "കല": 5894,
      "##ീസ്": 5895,
      "സ്റ്റ": 5896,
      "ഇത": 5897,
      "##പ്പോ": 5898,
      "കണ്ട": 5899,
      "##ബി": 5900,
      "##ധി": 5901,
      "##രോ": 5902,
      "പൂ": 5903,
      "കട": 5904,
      "##ൊരു": 5905,
      "##േവ": 5906,
      "ദേശ": 5907,
      "കെ": 5908,
      "സ്ഥിതി": 5909,
      "നഗ": 5910,
      "കൂടു": 5911,
      "##ിയി": 5912,
      "പ്രസി": 5913,
      "ജില്ല": 5914,
      "##കൂ": 5915,
      "##നും": 5916,
      "യൂ": 5917,
      "##കല": 5918,
      "ഉൾ": 5919,
      "##ണ്ഡ": 5920,
      "##ുകൊ": 5921,
      "##ന്‍": 5922,
      "ക്ഷേ": 5923,
      "##ീത": 5924,
      "ക്ര": 5925,
      "സാമ": 5926,
      "##റോ": 5927,
      "##വ്വ": 5928,
      "എന്നീ": 5929,
      "ലോക": 5930,
      "##ുണ്ട": 5931,
      "##ോടെ": 5932,
      "വർഷ": 5933,
      "##ഴി": 5934,
      "വരെ": 5935,
      "ഇതി": 5936,
      "##വിധ": 5937,
      "##േക": 5938,
      "##െന്ന്": 5939,
      "ഇട": 5940,
      "##ിക്കുകയും": 5941,
      "പ്രത്യ": 5942,
      "##ക്സ": 5943,
      "##ാഷ്ട്ര": 5944,
      "##പ്പോൾ": 5945,
      "##ാനം": 5946,
      "##സ്‌": 5947,
      "##പ്പെട്ടു": 5948,
      "##െയാണ്": 5949,
      "സ്ഥാപ": 5950,
      "##ാഭ": 5951,
      "പഠ": 5952,
      "##ൂടെ": 5953,
      "##മാണ": 5954,
      "പറയ": 5955,
      "തന്റെ": 5956,
      "അന": 5957,
      "##ദ്ര": 5958,
      "##യ്ക്ക്": 5959,
      "അവർ": 5960,
      "##ങ്ങളില": 5961,
      "##ോട്": 5962,
      "##ാരണ": 5963,
      "ഗു": 5964,
      "എന്ന്": 5965,
      "മേ": 5966,
      "##ൈന": 5967,
      "മാർ": 5968,
      "##ഭവ": 5969,
      "##ീപ": 5970,
      "##കാരം": 5971,
      "##േരിക്ക": 5972,
      "##യ്ക്ക": 5973,
      "##ടക്ക": 5974,
      "##ണ്ടി": 5975,
      "##ിച്ചി": 5976,
      "ഭൂ": 5977,
      "മഹ": 5978,
      "##ംഗ്": 5979,
      "പുര": 5980,
      "##ഞ്ഞു": 5981,
      "##ണക്ക": 5982,
      "##ുംബ": 5983,
      "ഭാഷ": 5984,
      "ഉയ": 5985,
      "##ാനും": 5986,
      "##ക്ഷേ": 5987,
      "നിയമ": 5988,
      "##ീർ": 5989,
      "##ുകളിൽ": 5990,
      "ചു": 5991,
      "##ലച്ച": 5992,
      "രണ്ട": 5993,
      "##ീറ്റർ": 5994,
      "കാ": 5995,
      "വിദ്യ": 5996,
      "##വാ": 5997,
      "അറിയ": 5998,
      "എന്നാൽ": 5999,
      "##ീസ": 6000,
      "##ന്യ": 6001,
      "താ": 6002,
      "വലിയ": 6003,
      "##ുകളും": 6004,
      "##ിക്കാൻ": 6005,
      "##ിക്കുക": 6006,
      "##ങ്ങള്‍": 6007,
      "##ിനു": 6008,
      "##േക്ക": 6009,
      "സൂ": 6010,
      "അമേരിക്ക": 6011,
      "ബന്ധ": 6012,
      "എല്ല": 6013,
      "##തിര": 6014,
      "##േറ്റ": 6015,
      "കൈ": 6016,
      "എഴു": 6017,
      "രോഗ": 6018,
      "##ക്ഷണ": 6019,
      "##മോ": 6020,
      "പിന്നീ": 6021,
      "അംഗ": 6022,
      "##പോ": 6023,
      "ഗ്രാമ": 6024,
      "##താവ": 6025,
      "ദേശീയ": 6026,
      "തിരു": 6027,
      "##ബന്ധ": 6028,
      "റോ": 6029,
      "നൂ": 6030,
      "വർ": 6031,
      "##െയ്": 6032,
      "##ങ്ങി": 6033,
      "കഥ": 6034,
      "##ിയോ": 6035,
      "പട്ട": 6036,
      "തുടർ": 6037,
      "##ലച്ചിത്ര": 6038,
      "ഒന്ന": 6039,
      "##ാരം": 6040,
      "##ളം": 6041,
      "നഗര": 6042,
      "നടത്ത": 6043,
      "##ളി": 6044,
      "##ടന": 6045,
      "രാജ്യ": 6046,
      "##ദി": 6047,
      "സാ": 6048,
      "##ൻസ്": 6049,
      "സംഘ": 6050,
      "##ിയെ": 6051,
      "##കളിൽ": 6052,
      "##ാണ്ട": 6053,
      "##ൻസ": 6054,
      "##ന്തര": 6055,
      "ബ്ര": 6056,
      "തല": 6057,
      "ആവ": 6058,
      "ഫ്ര": 6059,
      "ലെ": 6060,
      "ചേർ": 6061,
      "##നങ്ങൾ": 6062,
      "ശര": 6063,
      "##ാസം": 6064,
      "##ല്‍": 6065,
      "പാർ": 6066,
      "മലയാള": 6067,
      "##ോദ": 6068,
      "##ിയാണ്": 6069,
      "ഓഫ്": 6070,
      "ഇദ്ദേഹ": 6071,
      "##െയുള്ള": 6072,
      "##പ്പം": 6073,
      "ടെ": 6074,
      "##ഷ്ണ": 6075,
      "##കാശ": 6076,
      "##പര": 6077,
      "അടി": 6078,
      "##ക്കുറ": 6079,
      "മാത്ര": 6080,
      "വയ": 6081,
      "##ിക്കു": 6082,
      "##ാന്‍": 6083,
      "ഇന്ത്യൻ": 6084,
      "##യായി": 6085,
      "ജീവ": 6086,
      "##ക്കാല": 6087,
      "##ുമായി": 6088,
      "പിന്നീട്": 6089,
      "മന": 6090,
      "##ാട്": 6091,
      "മോ": 6092,
      "ബി": 6093,
      "##ശ്ര": 6094,
      "നിർമ്മ": 6095,
      "##വ്": 6096,
      "##രംഭ": 6097,
      "##െയ്യ": 6098,
      "##ീതി": 6099,
      "##േഖല": 6100,
      "199": 6101,
      "അവസ": 6102,
      "##തൃ": 6103,
      "പഞ്ച": 6104,
      "വെള്ള": 6105,
      "##ിയൻ": 6106,
      "ചെയ്ത": 6107,
      "##ഗ്ഗ": 6108,
      "##ാടക": 6109,
      "##മാർ": 6110,
      "പ്രത്യേക": 6111,
      "മുൻ": 6112,
      "സ്പ": 6113,
      "വിവ": 6114,
      "##സ്തു": 6115,
      "##ംഗ്ല": 6116,
      "എന്നു": 6117,
      "വളരെ": 6118,
      "##കളും": 6119,
      "##ധ്യ": 6120,
      "##ക്കുന്നു": 6121,
      "##ാണ്‌": 6122,
      "##സ്യ": 6123,
      "##ീഷ": 6124,
      "##യിലും": 6125,
      "##ീവിത": 6126,
      "##ക്കള": 6127,
      "കമ്പ": 6128,
      "##രും": 6129,
      "കള": 6130,
      "ശേഷം": 6131,
      "ജൂ": 6132,
      "പ്രസിദ്ധ": 6133,
      "##ാക്കി": 6134,
      "ദിവ": 6135,
      "##ബ്ര": 6136,
      "ഭരണ": 6137,
      "ഉള്ള": 6138,
      "കീ": 6139,
      "ബാ": 6140,
      "##ിയായ": 6141,
      "##ജ്ഞ": 6142,
      "ഏക": 6143,
      "നിറ": 6144,
      "കേന്ദ്ര": 6145,
      "##തിനെ": 6146,
      "##യ്യ": 6147,
      "മര": 6148,
      "നെ": 6149,
      "##ക്കെ": 6150,
      "##ീഷ്": 6151,
      "വിള": 6152,
      "ഇവിടെ": 6153,
      "ക്ഷേത്ര": 6154,
      "സംസ്ഥാന": 6155,
      "ഒര": 6156,
      "##ദ്ധ്യ": 6157,
      "##ോസ": 6158,
      "മി": 6159,
      "##ക്കാർ": 6160,
      "ചലച്ചിത്ര": 6161,
      "##ത്തിലും": 6162,
      "സാഹ": 6163,
      "അല": 6164,
      "##ോധ": 6165,
      "##ോണ": 6166,
      "അർ": 6167,
      "കൂട": 6168,
      "15": 6169,
      "##ികളുടെ": 6170,
      "##ക്തി": 6171,
      "##ോറ": 6172,
      "അവി": 6173,
      "കുട്ട": 6174,
      "##ാനുള്ള": 6175,
      "ട്ര": 6176,
      "തൊ": 6177,
      "##ങ്ങനെ": 6178,
      "##മ്": 6179,
      "കര": 6180,
      "##ുകളുടെ": 6181,
      "##െന്ന": 6182,
      "##ട്ര": 6183,
      "##ൂഹ": 6184,
      "തട": 6185,
      "ബ്രി": 6186,
      "ചരി": 6187,
      "##രിപ്പ": 6188,
      "##ക്രമ": 6189,
      "##ിക്കപ്പെട്ട": 6190,
      "##തിനാൽ": 6191,
      "നാല": 6192,
      "##മുണ്ട": 6193,
      "##ീല": 6194,
      "##ാനി": 6195,
      "##േണ്ട": 6196,
      "ആർ": 6197,
      "##വിധാന": 6198,
      "വിശ്വ": 6199,
      "അദ്ദേഹത്തിന്റെ": 6200,
      "വാ": 6201,
      "##മായും": 6202,
      "കില": 6203,
      "198": 6204,
      "നിന്ന": 6205,
      "കരു": 6206,
      "##ുര": 6207,
      "അഭിന": 6208,
      "##ക്സ്": 6209,
      "##മ്പോൾ": 6210,
      "##ിനി": 6211,
      "രച": 6212,
      "ക്ല": 6213,
      "##കളുടെ": 6214,
      "നൂറ്റ": 6215,
      "ലി": 6216,
      "##ചെയ്യ": 6217,
      "ആരംഭ": 6218,
      "##ത്തിലുള്ള": 6219,
      "17": 6220,
      "##ർന്ന": 6221,
      "##രിച്ച്": 6222,
      "##കോ": 6223,
      "##ിലുള്ള": 6224,
      "പോല": 6225,
      "സംഗ": 6226,
      "##േന": 6227,
      "##ിരുന്നു": 6228,
      "##മുഖ": 6229,
      "അപ": 6230,
      "കുടുംബ": 6231,
      "##ങ്ങളിലും": 6232,
      "മറ്റു": 6233,
      "അത്": 6234,
      "##നായി": 6235,
      "##ത്വ": 6236,
      "##ഴക്ക": 6237,
      "##െടുത്ത": 6238,
      "##വിൽ": 6239,
      "തീ": 6240,
      "പ്രവ": 6241,
      "വിക": 6242,
      "197": 6243,
      "##വധി": 6244,
      "##ാല്‍": 6245,
      "##െങ്കിൽ": 6246,
      "##പ്പി": 6247,
      "കൂടുതൽ": 6248,
      "റെ": 6249,
      "യു": 6250,
      "അട": 6251,
      "##േഷൻ": 6252,
      "സാധാരണ": 6253,
      "##മുണ്ട്": 6254,
      "##കം": 6255,
      "രണ്ടു": 6256,
      "കണക്ക": 6257,
      "എന്നും": 6258,
      "##തായി": 6259,
      "##ൻഡ": 6260,
      "##േയ": 6261,
      "ആര": 6262,
      "##ാണു": 6263,
      "ചെയ്യുന്ന": 6264,
      "അവരുടെ": 6265,
      "##ശേഷം": 6266,
      "സൈ": 6267,
      "ഭാര": 6268,
      "##ദ്ദേശ": 6269,
      "##ിത്യ": 6270,
      "##ദം": 6271,
      "പൊതു": 6272,
      "##പ്പു": 6273,
      "##ാണി": 6274,
      "##ട്ടുള്ള": 6275,
      "##ിച്ചിരുന്നു": 6276,
      "##വേഷ": 6277,
      "പേ": 6278,
      "ആയിരുന്നു": 6279,
      "##ൂട": 6280,
      "##ാരി": 6281,
      "യുദ്ധ": 6282,
      "ന്": 6283,
      "##ക്യ": 6284,
      "സ്ഥല": 6285,
      "##ശാസ്ത്ര": 6286,
      "##ർമ്മ": 6287,
      "അറ": 6288,
      "ജീവിത": 6289,
      "ദ്വ": 6290,
      "##ാർത്ഥ": 6291,
      "കോള": 6292,
      "സ്ത്ര": 6293,
      "##തം": 6294,
      "##ാറുണ്ട്": 6295,
      "##നുഷ്യ": 6296,
      "അധിക": 6297,
      "##എസ്": 6298,
      "വല": 6299,
      "തു": 6300,
      "196": 6301,
      "##പ്പോഴ": 6302,
      "##ൊപ്പം": 6303,
      "ബ്രിട്ട": 6304,
      "കണ്ടെ": 6305,
      "##ിരുന്ന": 6306,
      "പങ്ക": 6307,
      "##ഭാവ": 6308,
      "##യില്‍": 6309,
      "##ാതി": 6310,
      "ഹൈ": 6311,
      "ഹെ": 6312,
      "മത്സ": 6313,
      "##സഭ": 6314,
      "##െന്നും": 6315,
      "##ോൺ": 6316,
      "മനുഷ്യ": 6317,
      "ക്രി": 6318,
      "##തിനു": 6319,
      "രാഷ്ട്ര": 6320,
      "നൂറ്റാണ്ട": 6321,
      "##ുകാര": 6322,
      "##ിലാണ്": 6323,
      "എന്നി": 6324,
      "സംഗീത": 6325,
      "12": 6326,
      "##ിക്കും": 6327,
      "കിലോമ": 6328,
      "##ോളം": 6329,
      "കഴി": 6330,
      "വിജ": 6331,
      "##െടുക്ക": 6332,
      "കൂട്ട": 6333,
      "##19": 6334,
      "നടന്ന": 6335,
      "##ന്ഥ": 6336,
      "ഗോ": 6337,
      "എല്ലാ": 6338,
      "##ത്തില്‍": 6339,
      "##യുണ്ട": 6340,
      "##ീൻ": 6341,
      "##ച്ചി": 6342,
      "##ിച്ചിട്ടുണ്ട്": 6343,
      "പാല": 6344,
      "പുതിയ": 6345,
      "മൈ": 6346,
      "##േഴ്": 6347,
      "##ടിഞ്ഞ": 6348,
      "##മാര": 6349,
      "##സ്വ": 6350,
      "ലക്ഷ": 6351,
      "സൗ": 6352,
      "##ോദ്യ": 6353,
      "##നിൽ": 6354,
      "##മ്പര": 6355,
      "##ദു": 6356,
      "വിഭാഗ": 6357,
      "##ത്തര": 6358,
      "അല്ല": 6359,
      "ചെറിയ": 6360,
      "ആവശ്യ": 6361,
      "##ൈവ": 6362,
      "ഇംഗ്ല": 6363,
      "വിവിധ": 6364,
      "സംവിധാന": 6365,
      "##ജന": 6366,
      "##മാക്ക": 6367,
      "##ാന്ത": 6368,
      "##ല്ലാം": 6369,
      "പ്രശ": 6370,
      "##്യൻ": 6371,
      "##ക്ഷി": 6372,
      "##ിയ്": 6373,
      "##ശ്ച": 6374,
      "ഫെ": 6375,
      "മാറ്റ": 6376,
      "ചരിത്ര": 6377,
      "ലോ": 6378,
      "16": 6379,
      "##മാക": 6380,
      "താഴ": 6381,
      "അസ": 6382,
      "ശ്രദ്ധ": 6383,
      "##യായ": 6384,
      "##ഷ്ഠ": 6385,
      "##ാഭ്യ": 6386,
      "##തിക": 6387,
      "10": 6388,
      "##ിനിമ": 6389,
      "ആശ": 6390,
      "195": 6391,
      "ചെയ്യുന്നു": 6392,
      "##ത്മ": 6393,
      "ഇരു": 6394,
      "സോ": 6395,
      "##ങ്ങൾക്ക്": 6396,
      "##ികളും": 6397,
      "സ്ത്രീ": 6398,
      "##ിലേക്ക്": 6399,
      "തോ": 6400,
      "ശ്രീ": 6401,
      "രണ്ട്": 6402,
      "ഡോ": 6403,
      "##േജ": 6404,
      "ശാസ്ത്ര": 6405,
      "ഡെ": 6406,
      "വന്ന": 6407,
      "##ാഥ": 6408,
      "##ക്കം": 6409,
      "##ണൽ": 6410,
      "സ്ഥിതിചെയ്യ": 6411,
      "മേഖല": 6412,
      "##ിയായി": 6413,
      "##ഴ്ച": 6414,
      "##കർ": 6415,
      "##്‌": 6416,
      "അവത": 6417,
      "##താ": 6418,
      "അവസാന": 6419,
      "നിരവധി": 6420,
      "ബോ": 6421,
      "ദേവ": 6422,
      "##ത്തും": 6423,
      "ന്യൂ": 6424,
      "വില": 6425,
      "##പ്പെടുന്നത്": 6426,
      "##തിന്": 6427,
      "എം": 6428,
      "##മില്ല": 6429,
      "##ഞ്ച്": 6430,
      "##ുന": 6431,
      "അമേരിക്കൻ": 6432,
      "കാർ": 6433,
      "കീഴ": 6434,
      "##ിലേ": 6435,
      "നേടി": 6436,
      "ഇല": 6437,
      "##മല്ല": 6438,
      "##യർ": 6439,
      "##ായക": 6440,
      "##ീക്ഷ": 6441,
      "ആക": 6442,
      "##വന": 6443,
      "##ഘട്ട": 6444,
      "വ്യത്യ": 6445,
      "##ാമ്പ": 6446,
      "ഇതിന്റെ": 6447,
      "##േറ്റ്": 6448,
      "##ുവരി": 6449,
      "##ുപ": 6450,
      "##റിൽ": 6451,
      "രീതി": 6452,
      "##ാവുന്ന": 6453,
      "##ജ്ജ": 6454,
      "ജല": 6455,
      "##മ്പോ": 6456,
      "##മൂ": 6457,
      "ലൈ": 6458,
      "##ശേഷ": 6459,
      "194": 6460,
      "ചി": 6461,
      "##േരി": 6462,
      "##വെ": 6463,
      "##യിലുള്ള": 6464,
      "ഇദ്ദേഹം": 6465,
      "##ങ്ങളാണ്": 6466,
      "വ്യാപ": 6467,
      "എന്നാണ്": 6468,
      "##ിന്ത": 6469,
      "കാരണ": 6470,
      "##ദേശം": 6471,
      "##ാലി": 6472,
      "വഴി": 6473,
      "##ാവ്": 6474,
      "സ്കൂ": 6475,
      "ബെ": 6476,
      "##ഭാഷ": 6477,
      "രക്ത": 6478,
      "##ംബ": 6479,
      "നാടക": 6480,
      "##ശ്ശ": 6481,
      "##ികച്ച": 6482,
      "##തിൽ": 6483,
      "അടുത്ത": 6484,
      "##കൊ": 6485,
      "##മാക്കി": 6486,
      "താമ": 6487,
      "കാര്യ": 6488,
      "അഭി": 6489,
      "അര": 6490,
      "മുന്ന": 6491,
      "##ോഷ": 6492,
      "##ക്കൊ": 6493,
      "##ീമ": 6494,
      "##വിട": 6495,
      "കൊണ്ട": 6496,
      "ജില്ലയിലെ": 6497,
      "തുടർന്ന്": 6498,
      "14": 6499,
      "##ിട": 6500,
      "##കരണ": 6501,
      "പതി": 6502,
      "##ൃത്ത": 6503,
      "##ചാര": 6504,
      "##ാമത്തെ": 6505,
      "##ത്തിറ": 6506,
      "##സമ": 6507,
      "##ലൈ": 6508,
      "##മ്പ്": 6509,
      "വിദ്യാഭ്യ": 6510,
      "##ാക്കിയ": 6511,
      "വിവാഹ": 6512,
      "ഒഴ": 6513,
      "##യായിരുന്നു": 6514,
      "##രണം": 6515,
      "##സിൽ": 6516,
      "സാഹിത്യ": 6517,
      "##ത്തിനും": 6518,
      "##ന്മാർ": 6519,
      "നോ": 6520,
      "പാ": 6521,
      "##ടുക്ക": 6522,
      "യാത്ര": 6523,
      "##ിച്ചിരുന്ന": 6524,
      "##ണിയ": 6525,
      "ഇതു": 6526,
      "##ർമ": 6527,
      "##സ്കാര": 6528,
      "##സർ": 6529,
      "##യ്ക്കു": 6530,
      "##ത്തിലാണ്": 6531,
      "##ുകൂ": 6532,
      "##ലും": 6533,
      "പുറത്തിറ": 6534,
      "##വ്യ": 6535,
      "##ള്ളി": 6536,
      "##നുസ": 6537,
      "പരിശ": 6538,
      "##മാണ്‌": 6539,
      "13": 6540,
      "സമയ": 6541,
      "##െയി": 6542,
      "വിഷ": 6543,
      "##ുകള്‍": 6544,
      "മാന": 6545,
      "പ്രസിദ്ധീകര": 6546,
      "##ാബ": 6547,
      "തുടങ്ങി": 6548,
      "##സിന്റെ": 6549,
      "##രിക്കും": 6550,
      "പൂർ": 6551,
      "അതിന്റെ": 6552,
      "പഴ": 6553,
      "പേരിൽ": 6554,
      "മുഖ്യ": 6555,
      "കണ്ണ": 6556,
      "അന്ത": 6557,
      "മാസ": 6558,
      "നല്ല": 6559,
      "##ിക്കൽ": 6560,
      "സ്ഥാന": 6561,
      "തമി": 6562,
      "##ങ്ങ്": 6563,
      "കൂടിയ": 6564,
      "അവിടെ": 6565,
      "കോൺ": 6566,
      "കേരളത്തിലെ": 6567,
      "##േന്ദ്ര": 6568,
      "##രക്ഷ": 6569,
      "ഇതിൽ": 6570,
      "കോട്ട": 6571,
      "##കളെ": 6572,
      "##ണമെ": 6573,
      "ദേശീയോദ്യ": 6574,
      "##ുമ": 6575,
      "##ാശാല": 6576,
      "##റാ": 6577,
      "##സ്പ": 6578,
      "##ോസ്": 6579,
      "##നാണ്": 6580,
      "##സംഖ്യ": 6581,
      "##ികളെ": 6582,
      "##ഷൻ": 6583,
      "പദ": 6584,
      "ചെറു": 6585,
      "##ുത": 6586,
      "ഓരോ": 6587,
      "##മാനം": 6588,
      "##ഗ്രഹ": 6589,
      "കൊണ്ട്": 6590,
      "ശരീര": 6591,
      "ഉദ": 6592,
      "രേഖ": 6593,
      "കൊല്ല": 6594,
      "മരണ": 6595,
      "##ങ്ങളിലെ": 6596,
      "##യുണ്ടായി": 6597,
      "മൂന്ന": 6598,
      "##േത": 6599,
      "##ത്തരം": 6600,
      "##ുവാൻ": 6601,
      "സിനിമ": 6602,
      "##യിലാണ്": 6603,
      "ബഹ": 6604,
      "193": 6605,
      "വടക്ക": 6606,
      "##നിര": 6607,
      "##യിച്ച": 6608,
      "അയ": 6609,
      "കിലോമീറ്റർ": 6610,
      "##ഫി": 6611,
      "##ായം": 6612,
      "##െന്നു": 6613,
      "##കലാശാല": 6614,
      "മികച്ച": 6615,
      "അടിസ്ഥാന": 6616,
      "ഗ്രന്ഥ": 6617,
      "##നോ": 6618,
      "##ശി": 6619,
      "##ുകൊണ്ട്": 6620,
      "ശത": 6621,
      "11": 6622,
      "നിർമ്": 6623,
      "മൊ": 6624,
      "കമ്മ": 6625,
      "ചിത്രം": 6626,
      "##ൃഷ്ട": 6627,
      "പഞ്ചായ": 6628,
      "##ർച്ച": 6629,
      "പുസ്ത": 6630,
      "##ക്കൾ": 6631,
      "##പഞ്ച": 6632,
      "##രാജ": 6633,
      "ഉണ്ട്": 6634,
      "കൂടുതല": 6635,
      "അക്ക": 6636,
      "##ഫ്ര": 6637,
      "പ്ല": 6638,
      "പിട": 6639,
      "പടിഞ്ഞ": 6640,
      "##്യത": 6641,
      "തമ്മ": 6642,
      "കൂടാതെ": 6643,
      "മത": 6644,
      "ശി": 6645,
      "ഉറ": 6646,
      "##ിലി": 6647,
      "ആദ്യത്തെ": 6648,
      "നിന്നു": 6649,
      "##ദർശ": 6650,
      "പ്രശസ്ത": 6651,
      "##ന്നി": 6652,
      "അവതരിപ്പ": 6653,
      "അഥ": 6654,
      "ഫല": 6655,
      "##ായ്": 6656,
      "ഹിന്": 6657,
      "##വാദ": 6658,
      "##തന്ത്ര": 6659,
      "##പെ": 6660,
      "##ണു": 6661,
      "സംഭവ": 6662,
      "നദ": 6663,
      "##ാവി": 6664,
      "##റും": 6665,
      "ശ്രമ": 6666,
      "ഉണ്ടാക": 6667,
      "നടത്തി": 6668,
      "നടത്തിയ": 6669,
      "ഇവിട": 6670,
      "സസ്യ": 6671,
      "ഇല്ല": 6672,
      "##ാറ്റ": 6673,
      "വരു": 6674,
      "##ചന": 6675,
      "കരുത": 6676,
      "##ുടേയും": 6677,
      "രാഷ്ട്രീയ": 6678,
      "അതു": 6679,
      "എത്ത": 6680,
      "##ര്യ": 6681,
      "##മാൻ": 6682,
      "##പ്ല": 6683,
      "##ർത്തി": 6684,
      "25": 6685,
      "##ംശ": 6686,
      "തെക്ക": 6687,
      "##ിലൂടെ": 6688,
      "##ികി": 6689,
      "##ദ്ദ": 6690,
      "ദ്വീപ": 6691,
      "##20": 6692,
      "##ാനായി": 6693,
      "ശിവ": 6694,
      "നിയന്ത്ര": 6695,
      "##ാർഡ്": 6696,
      "##റ്റം": 6697,
      "##ഷി": 6698,
      "വിവര": 6699,
      "മാത്രം": 6700,
      "വിധ": 6701,
      "സമ്പ": 6702,
      "##ിനും": 6703,
      "##യുള്ള": 6704,
      "##ശ്വ": 6705,
      "##ണിക്ക": 6706,
      "പദ്ധ": 6707,
      "##മന്ത്ര": 6708,
      "വട": 6709,
      "##യില്ല": 6710,
      "വരുന്ന": 6711,
      "##നിയ": 6712,
      "##ത്തേ": 6713,
      "സമു": 6714,
      "നോവ": 6715,
      "ദു": 6716,
      "##ൽക്ക": 6717,
      "##ദ്യോഗ": 6718,
      "എൻ": 6719,
      "##സ്ട്ര": 6720,
      "##ധികം": 6721,
      "ആന": 6722,
      "##ണ്ടും": 6723,
      "വ്യവ": 6724,
      "ടി": 6725,
      "സർവ": 6726,
      "മറ്റൊരു": 6727,
      "##ികളിൽ": 6728,
      "##ഡിയ": 6729,
      "##യിലേക്ക്": 6730,
      "തിരഞ്ഞ": 6731,
      "##കൻ": 6732,
      "##ച്ഛ": 6733,
      "##ഭൂ": 6734,
      "മുതല": 6735,
      "##സെ": 6736,
      "അഥവാ": 6737,
      "##ാമി": 6738,
      "##ോടൊപ്പം": 6739,
      "##ാലും": 6740,
      "പോക": 6741,
      "##ക്‌": 6742,
      "##ജീവ": 6743,
      "സങ്ക": 6744,
      "റി": 6745,
      "##ടിപ്പ": 6746,
      "ഇൻ": 6747,
      "##േക്ഷ": 6748,
      "കാരണം": 6749,
      "##ിന്‍": 6750,
      "അഞ്ച": 6751,
      "##നില": 6752,
      "##പ്പിൽ": 6753,
      "സമീപ": 6754,
      "##ിച്ചുള്ള": 6755,
      "##ികിത്സ": 6756,
      "##ായും": 6757,
      "ബുദ്ധ": 6758,
      "##രുവ": 6759,
      "ദി": 6760,
      "അല്ലെങ്കിൽ": 6761,
      "##സ്ല": 6762,
      "കഴിഞ്ഞ": 6763,
      "##ഞ്ഞ്": 6764,
      "##പ്പോഴും": 6765,
      "ഗണ": 6766,
      "##ണ്ണം": 6767,
      "##പ്രദേശ": 6768,
      "തുടങ്ങിയവ": 6769,
      "സേവ": 6770,
      "വയസ്സ": 6771,
      "സഹായി": 6772,
      "##ൂക്ക": 6773,
      "എന്നറിയ": 6774,
      "ചൈന": 6775,
      "##പ്പറ": 6776,
      "തിരിച്ച": 6777,
      "തമിഴ്": 6778,
      "പുന": 6779,
      "മൂല": 6780,
      "മനസ്സ": 6781,
      "കണ്ടു": 6782,
      "ഏകദേശം": 6783,
      "##ത്തോടെ": 6784,
      "സഭ": 6785,
      "മൂന്നു": 6786,
      "##സൈ": 6787,
      "സംവിധാനം": 6788,
      "ജെ": 6789,
      "##പുര": 6790,
      "കണക്കാക്ക": 6791,
      "##ാളി": 6792,
      "ജോലി": 6793,
      "##പാദ": 6794,
      "ബ്ല": 6795,
      "##കി": 6796,
      "തൃ": 6797,
      "##ട്ടിയ": 6798,
      "ധാര": 6799,
      "ഉട": 6800,
      "##സ്സ്": 6801,
      "ദിവസ": 6802,
      "##ോപ": 6803,
      "##000": 6804,
      "ആല": 6805,
      "സ്വീകര": 6806,
      "കഴിയ": 6807,
      "##ങ്ക്": 6808,
      "നേതൃ": 6809,
      "##ൊന്ന": 6810,
      "##റിന്റെ": 6811,
      "##ുകളെ": 6812,
      "ജി": 6813,
      "##ുമാണ്": 6814,
      "അൽ": 6815,
      "മുഴ": 6816,
      "അള": 6817,
      "##പോലെ": 6818,
      "യൂറോ": 6819,
      "##കൃത": 6820,
      "##കൃതി": 6821,
      "പ്രസിഡ": 6822,
      "സർക്കാർ": 6823,
      "##സാ": 6824,
      "അമ്മ": 6825,
      "##ഹാര": 6826,
      "##വുമായി": 6827,
      "ബ്രിട്ടീഷ്": 6828,
      "പ്രകാരം": 6829,
      "പറയുന്നു": 6830,
      "##ല്പ": 6831,
      "ജനസംഖ്യ": 6832,
      "തുറ": 6833,
      "##ളു": 6834,
      "##ബു": 6835,
      "##ങ്കിലും": 6836,
      "പാര": 6837,
      "##ാസി": 6838,
      "##ർക്ക": 6839,
      "പതിന": 6840,
      "മറ്റ്": 6841,
      "ബാല": 6842,
      "##എം": 6843,
      "ആയ": 6844,
      "വർഷം": 6845,
      "##ുകൊണ്ട": 6846,
      "##വരെ": 6847,
      "##ൽപ്പ": 6848,
      "കൗ": 6849,
      "##പാട": 6850,
      "##ക്കാലത്ത്": 6851,
      "##ത്താണ്": 6852,
      "കൃതി": 6853,
      "വൈദ്യ": 6854,
      "ഏത": 6855,
      "സഞ്ച": 6856,
      "തേ": 6857,
      "ചെയ്യുന്നത്": 6858,
      "##ബ്ല": 6859,
      "##യിക്ക": 6860,
      "ഇവർ": 6861,
      "പരമ്പര": 6862,
      "താമസ": 6863,
      "നാമ": 6864,
      "##തന്നെ": 6865,
      "##മത": 6866,
      "പഠന": 6867,
      "സംഘടന": 6868,
      "ഹി": 6869,
      "##ർത്തിയ": 6870,
      "##സിപ്പ": 6871,
      "##ുള്ളത്": 6872,
      "എസ്": 6873,
      "കിഴക്ക": 6874,
      "ആദ്യമായി": 6875,
      "മിക്ക": 6876,
      "ചതു": 6877,
      "കൂടി": 6878,
      "വ്യത്യസ്ത": 6879,
      "##േജ്": 6880,
      "ആധ": 6881,
      "സൃഷ്ട": 6882,
      "സ്വന്ത": 6883,
      "##നുസരിച്ച്": 6884,
      "സഹോദ": 6885,
      "വധ": 6886,
      "##ഹ്": 6887,
      "##്യൂട്ട": 6888,
      "തീരു": 6889,
      "വസ്തു": 6890,
      "##ക്ടോ": 6891,
      "വൃ": 6892,
      "ബിരു": 6893,
      "വേണ്ടി": 6894,
      "വേണ്ട": 6895,
      "30": 6896,
      "താല": 6897,
      "പിതാവ": 6898,
      "ആള": 6899,
      "##ത്തിക": 6900,
      "തി": 6901,
      "രാമ": 6902,
      "നേരി": 6903,
      "##്രോ": 6904,
      "##ാവസ്ഥ": 6905,
      "പക്ഷേ": 6906,
      "നാ": 6907,
      "##ലു": 6908,
      "##ാരാഷ്ട്ര": 6909,
      "ധാരാള": 6910,
      "ക്ഷേത്രം": 6911,
      "##ിതമായ": 6912,
      "നേടിയ": 6913,
      "പ്രൊ": 6914,
      "സമാ": 6915,
      "##കാലത്ത്": 6916,
      "ഉത്തര": 6917,
      "ഉത്": 6918,
      "##ക്ഷിണ": 6919,
      "##ൃദ": 6920,
      "അന്": 6921,
      "##ിപ്പിക്ക": 6922,
      "ഹോ": 6923,
      "##ാർഡ": 6924,
      "##ോഗ്ര": 6925,
      "##ക്തിയ": 6926,
      "##്രാജ": 6927,
      "ചികിത്സ": 6928,
      "##സാര": 6929,
      "പ്രാ": 6930,
      "ഇന്ത്യയിലെ": 6931,
      "192": 6932,
      "ബാധ": 6933,
      "പേര്": 6934,
      "##നിന്ന്": 6935,
      "സന്ദ": 6936,
      "##രുന്നത്": 6937,
      "##മാവ": 6938,
      "മാറി": 6939,
      "##ീകരണ": 6940,
      "തൊഴ": 6941,
      "ഇപ്പോൾ": 6942,
      "##ത്തിനുള്ള": 6943,
      "##18": 6944,
      "പ്രവർത്തന": 6945,
      "മന്ത്ര": 6946,
      "വഴ": 6947,
      "പ്രശ്": 6948,
      "##ലിൽ": 6949,
      "##ിയുള്ള": 6950,
      "##ാലയ": 6951,
      "ആക്രമ": 6952,
      "ചെയ്തി": 6953,
      "##വേഷണ": 6954,
      "രണ്ടാം": 6955,
      "##മന": 6956,
      "##വണ": 6957,
      "മീറ്റർ": 6958,
      "##ിക്കൊ": 6959,
      "കുറഞ്ഞ": 6960,
      "##ാക്കുന്ന": 6961,
      "##കട": 6962,
      "##ക്കുറിച്ച്": 6963,
      "ഇത്തരം": 6964,
      "ചേര": 6965,
      "##ലോ": 6966,
      "##ക്രിയ": 6967,
      "##ഹി": 6968,
      "താര": 6969,
      "##ലിന്റെ": 6970,
      "##ദന": 6971,
      "##രത്തിൽ": 6972,
      "##ാടി": 6973,
      "##നിന്നും": 6974,
      "കാലഘട്ട": 6975,
      "ചുറ്റ": 6976,
      "##ക്കിട": 6977,
      "ലഭ്യ": 6978,
      "രംഗ": 6979,
      "##ീം": 6980,
      "##ിരിക്കുന്നു": 6981,
      "##ിപ്പിക്കുന്ന": 6982,
      "##ികള്‍": 6983,
      "പുസ്തക": 6984,
      "സമ്മ": 6985,
      "##ലിക്ക": 6986,
      "##പഞ്ചായ": 6987,
      "##രുഷ": 6988,
      "##യിട്ടുണ്ട്": 6989,
      "##ഹമ്മ": 6990,
      "നൽകി": 6991,
      "##ൂട്ട": 6992,
      "##ിട്ടുണ്ട്": 6993,
      "തന്ന": 6994,
      "##യറ": 6995,
      "##വൻ": 6996,
      "യൂണ": 6997,
      "ചേ": 6998,
      "##പുരം": 6999,
      "ജോൺ": 7000,
      "##ടക": 7001,
      "വംശ": 7002,
      "##റ്റ്‌": 7003,
      "തീര": 7004,
      "ദൈവ": 7005,
      "സൂച": 7006,
      "ഗ്രാമപഞ്ചായ": 7007,
      "കർ": 7008,
      "##ുകി": 7009,
      "##നേ": 7010,
      "##കള്‍": 7011,
      "ഇറ": 7012,
      "ക്യ": 7013,
      "ഏറെ": 7014,
      "പ്രവേശ": 7015,
      "നായ": 7016,
      "##തോടെ": 7017,
      "##പ്രവർത്ത": 7018,
      "##യിച്ചു": 7019,
      "നേര": 7020,
      "##രായ": 7021,
      "ദിവസം": 7022,
      "##ായിക": 7023,
      "##രോധ": 7024,
      "23": 7025,
      "##ത്വം": 7026,
      "പ്രമുഖ": 7027,
      "##റർ": 7028,
      "##നായിരുന്നു": 7029,
      "##ാകു": 7030,
      "##ാഷണൽ": 7031,
      "ജനനം": 7032,
      "വീണ്ടും": 7033,
      "##സ്കാരം": 7034,
      "##വില": 7035,
      "വിജയ": 7036,
      "തെള": 7037,
      "പട്ടിക": 7038,
      "കാണാം": 7039,
      "##ഗോ": 7040,
      "ദക്ഷിണ": 7041,
      "മാത്രമേ": 7042,
      "പടിഞ്ഞാറ": 7043,
      "പോലെ": 7044,
      "സാമൂഹ": 7045,
      "##15": 7046,
      "##10": 7047,
      "മൂന്ന്": 7048,
      "##േണ്ടി": 7049,
      "##ക്സി": 7050,
      "കഥാപ": 7051,
      "സാമ്പ": 7052,
      "##ത്തിനായി": 7053,
      "##ഖ്യാപ": 7054,
      "എന്നിവയാണ്": 7055,
      "രക്ഷ": 7056,
      "##രിക്കുന്നു": 7057,
      "ബന്ധപ്പെട്ട": 7058,
      "പക്ഷ": 7059,
      "സർവ്വ": 7060,
      "##മാണി": 7061,
      "##ലുകൾ": 7062,
      "##ിരി": 7063,
      "##സു": 7064,
      "##രിക്കുന്ന": 7065,
      "##ാകുന്ന": 7066,
      "അക": 7067,
      "ഉപയോഗിക്ക": 7068,
      "തയ്യ": 7069,
      "##റൽ": 7070,
      "തീരുമാന": 7071,
      "##പരി": 7072,
      "##ാപ്പ": 7073,
      "##പ്രായ": 7074,
      "കുറ്റ": 7075,
      "പത്ര": 7076,
      "എണ്ണ": 7077,
      "നിന്നുള്ള": 7078,
      "##ാക്കള": 7079,
      "##മല": 7080,
      "##ിയം": 7081,
      "##ൃത": 7082,
      "##2ൽ": 7083,
      "ദിന": 7084,
      "##യിലേ": 7085,
      "##ത്തോ": 7086,
      "##തിന്റെ": 7087,
      "##7ൽ": 7088,
      "##യിരുന്നു": 7089,
      "##ങ്ങുന്ന": 7090,
      "രാജാവ": 7091,
      "##നിർ": 7092,
      "പട്ടണ": 7093,
      "##ത്തുള്ള": 7094,
      "മറ": 7095,
      "ഇംഗ്ലീഷ്": 7096,
      "ഏപ്ര": 7097,
      "##ഷ്യൻ": 7098,
      "ഗാന": 7099,
      "കൃഷ്ണ": 7100,
      "##ുനിക": 7101,
      "ജനുവരി": 7102,
      "##ൻഡ്": 7103,
      "##ബ്ദ": 7104,
      "പശ്ച": 7105,
      "##യാണ": 7106,
      "##ല്": 7107,
      "##തിനായി": 7108,
      "##രൂപ": 7109,
      "വിദ്യാഭ്യാസ": 7110,
      "##രിച്ച": 7111,
      "അന്ന": 7112,
      "മധ്യ": 7113,
      "ഭക്ഷ": 7114,
      "ചുവ": 7115,
      "എന്നിവിട": 7116,
      "##ഴിക്ക": 7117,
      "അന്തര": 7118,
      "പെട്ട": 7119,
      "വായ": 7120,
      "2011": 7121,
      "24": 7122,
      "##6ൽ": 7123,
      "##നാട": 7124,
      "26": 7125,
      "നാട": 7126,
      "##ഗു": 7127,
      "അക്കാദ": 7128,
      "പദ്ധതി": 7129,
      "സാമ്രാജ": 7130,
      "ഭാരത": 7131,
      "ജനിച്ചു": 7132,
      "##രൻ": 7133,
      "##സ്ത്ര": 7134,
      "##ത്തിലൂടെ": 7135,
      "അതിനു": 7136,
      "പ്രഖ്യാപ": 7137,
      "ഡിസം": 7138,
      "##തിരെ": 7139,
      "##മ്പോള്‍": 7140,
      "##ോധന": 7141,
      "##ല്യ": 7142,
      "കവ": 7143,
      "##ുകയുണ്ടായി": 7144,
      "##തുമായ": 7145,
      "പഴയ": 7146,
      "സൂക്ഷ": 7147,
      "##ോഗ്യ": 7148,
      "മുഴുവ": 7149,
      "##ാഖ": 7150,
      "##ാധി": 7151,
      "##വുമായ": 7152,
      "##4ൽ": 7153,
      "കാലത്ത്": 7154,
      "##ത്തിലേക്ക്": 7155,
      "സ്വാധ": 7156,
      "##മായിരുന്ന": 7157,
      "##ാതന്ത്ര": 7158,
      "രചന": 7159,
      "27": 7160,
      "സൈന": 7161,
      "പ്രസ": 7162,
      "കാണപ്പെടുന്നു": 7163,
      "##ാണിത്": 7164,
      "##വനന്ത": 7165,
      "ഉപയോഗിച്ച്": 7166,
      "##50": 7167,
      "ഉയർന്ന": 7168,
      "കോൺഗ്ര": 7169,
      "##നിന്ന": 7170,
      "ലഭിച്ചു": 7171,
      "##ടുന്ന": 7172,
      "പകര": 7173,
      "##ഡിയോ": 7174,
      "##ക്കോ": 7175,
      "അറിയപ്പെടുന്നു": 7176,
      "വിസ്ത": 7177,
      "##പ്പെടുത്തി": 7178,
      "സമൂഹ": 7179,
      "##ാര്‍": 7180,
      "##ായത്": 7181,
      "ഭൂമി": 7182,
      "റിപ്പ": 7183,
      "22": 7184,
      "കുഞ്ഞ": 7185,
      "അധ": 7186,
      "പ്രച": 7187,
      "##കാര്യ": 7188,
      "സൂര": 7189,
      "##ർപ്പ": 7190,
      "അവകാശ": 7191,
      "ഫി": 7192,
      "തിരുവനന്ത": 7193,
      "##ഫ്രിക്ക": 7194,
      "##ത്തുട": 7195,
      "##ങ്ങന": 7196,
      "മനസ്സില": 7197,
      "##േഷ്യ": 7198,
      "വ്യക്തി": 7199,
      "കേരളത്തിൽ": 7200,
      "വന്നു": 7201,
      "##പക്ഷ": 7202,
      "പാക": 7203,
      "വാർ": 7204,
      "##ിച്ചിരിക്കുന്നു": 7205,
      "വിന": 7206,
      "ദേശീയോദ്യാനം": 7207,
      "ആദ": 7208,
      "##ടുത്തു": 7209,
      "പുരുഷ": 7210,
      "നക്ഷ": 7211,
      "##ഡോ": 7212,
      "##ുകാർ": 7213,
      "സെപ്": 7214,
      "ഫ്രാൻ": 7215,
      "ദ്ര": 7216,
      "ഐക്യ": 7217,
      "പേർ": 7218,
      "വിശേഷ": 7219,
      "രൂപം": 7220,
      "സാമ്പത്തിക": 7221,
      "മുഖ": 7222,
      "ഇതിനെ": 7223,
      "##17": 7224,
      "##ക്ഷര": 7225,
      "വഹ": 7226,
      "തെര": 7227,
      "##തിനും": 7228,
      "നവ": 7229,
      "##മേഖല": 7230,
      "##8ൽ": 7231,
      "##13": 7232,
      "സ്വയം": 7233,
      "യഥ": 7234,
      "##രംഗ": 7235,
      "ആധുനിക": 7236,
      "##പത": 7237,
      "ആഗ": 7238,
      "##ത്തിനെ": 7239,
      "ബീ": 7240,
      "##തിയുടെ": 7241,
      "നവം": 7242,
      "##പൂർ": 7243,
      "##പാത": 7244,
      "##ത്തിലേ": 7245,
      "നൽകിയ": 7246,
      "##സൺ": 7247,
      "##ന്മ": 7248,
      "##മെന്ന": 7249,
      "നമ്പ": 7250,
      "##ാനു": 7251,
      "സ്കൂള": 7252,
      "##ൊക്കെ": 7253,
      "##രിയ": 7254,
      "ഒക്ടോ": 7255,
      "വിശ്വസ": 7256,
      "ചേർന്ന": 7257,
      "അന്താരാഷ്ട്ര": 7258,
      "##ാധാന്": 7259,
      "തയ്യാറ": 7260,
      "##പ്പെടുകയും": 7261,
      "##ർവ": 7262,
      "ഇന്ന്": 7263,
      "##ങ്ങളായി": 7264,
      "##ജ്യ": 7265,
      "ഇതിനു": 7266,
      "ബു": 7267,
      "##5ൽ": 7268,
      "ഹിന്ദു": 7269,
      "##ീക്ഷണ": 7270,
      "##ിച്ചുവ": 7271,
      "വിവാഹം": 7272,
      "##ുകളിലും": 7273,
      "##9ൽ": 7274,
      "അധികാര": 7275,
      "പറഞ്ഞ": 7276,
      "##ഷിക": 7277,
      "ആദ്യം": 7278,
      "##ങ്ങളായ": 7279,
      "##ക്കാൻ": 7280,
      "ചതുര": 7281,
      "നിർദ്ദേശ": 7282,
      "##വിദ്യ": 7283,
      "പിന്": 7284,
      "അനുഭവ": 7285,
      "ഗുരു": 7286,
      "##12": 7287,
      "ശേഷ": 7288,
      "ചന്ദ്ര": 7289,
      "പൗ": 7290,
      "ഭക്ഷണ": 7291,
      "##പ്പെടുത്തിയി": 7292,
      "സമുദ്ര": 7293,
      "##പ്രകാരം": 7294,
      "സ്വാതന്ത്ര": 7295,
      "മാറ": 7296,
      "##ീവ്": 7297,
      "ഇര": 7298,
      "മൂലം": 7299,
      "##ർന്ന്": 7300,
      "വാദ": 7301,
      "സ്വതന്ത്ര": 7302,
      "##ിക്കപ്പെട്ടു": 7303,
      "ഭഗ": 7304,
      "മക": 7305,
      "##16": 7306,
      "##നത്തിൽ": 7307,
      "കഥാപാത്ര": 7308,
      "നിർമ്മാണ": 7309,
      "##േറിയ": 7310,
      "##ാതന": 7311,
      "കോട": 7312,
      "##വിശേഷ": 7313,
      "##േദ": 7314,
      "എന്നിവർ": 7315,
      "പത്ത": 7316,
      "##യ്ക്കും": 7317,
      "കല്ല": 7318,
      "##ഘടന": 7319,
      "ഉപയോഗിക്കുന്നു": 7320,
      "മീ": 7321,
      "സംബന്ധ": 7322,
      "ഏപ്രിൽ": 7323,
      "കാവ": 7324,
      "കണ്ടെത്ത": 7325,
      "കൊടു": 7326,
      "##രുത്ത": 7327,
      "##മെന്റ": 7328,
      "##ട്ടില്ല": 7329,
      "##കെ": 7330,
      "##ുകു": 7331,
      "ചുമ": 7332,
      "##ശം": 7333,
      "വില്ല": 7334,
      "##ികൾക്ക്": 7335,
      "##സൂ": 7336,
      "##ടം": 7337,
      "##ത്തോട": 7338,
      "##ന്തു": 7339,
      "##3ൽ": 7340,
      "##മാണിത്": 7341,
      "##ക്കുന്നത്": 7342,
      "##ഗ്ന": 7343,
      "കവിത": 7344,
      "പച്ച": 7345,
      "സൈനിക": 7346,
      "##ണ്ഡല": 7347,
      "##ങ്ങൾക്കു": 7348,
      "##ഡ്‌": 7349,
      "##രിത": 7350,
      "സംസ്": 7351,
      "നീള": 7352,
      "നദി": 7353,
      "##പ്പുറ": 7354,
      "##ാർഥ": 7355,
      "ധാരാളം": 7356,
      "##ടങ്ങ": 7357,
      "നഷ്ട": 7358,
      "##ാപ്": 7359,
      "##േലിയ": 7360,
      "##ിയർ": 7361,
      "പുറത്തിറങ്ങിയ": 7362,
      "##ാഗത": 7363,
      "##ുവിന്റെ": 7364,
      "ടൈ": 7365,
      "##14": 7366,
      "##ഹം": 7367,
      "##ക്കിയ": 7368,
      "##ശാല": 7369,
      "##റുകൾ": 7370,
      "##1ൽ": 7371,
      "##0ൽ": 7372,
      "##കേന്ദ്ര": 7373,
      "സ്ഥിതിചെയ്യുന്ന": 7374,
      "##ക്റ്റ": 7375,
      "##മെന്റ്": 7376,
      "##ഗണ": 7377,
      "പൈ": 7378,
      "##ഫോർ": 7379,
      "നേതൃത്വ": 7380,
      "കിഴ": 7381,
      "##ഹമ്മദ്": 7382,
      "##ിച്ചും": 7383,
      "പാട": 7384,
      "##മീ": 7385,
      "ഫോർ": 7386,
      "അതിൽ": 7387,
      "ഗാ": 7388,
      "##പൂ": 7389,
      "സ്‌": 7390,
      "പ്രതിനി": 7391,
      "35": 7392,
      "മാതൃ": 7393,
      "##ര്‍ത്ത": 7394,
      "##ിച്ചിരുന്നത്": 7395,
      "##െടുത്തു": 7396,
      "മറ്റും": 7397,
      "അദ്ധ്യ": 7398,
      "ഉപയോഗിക്കുന്ന": 7399,
      "##ുകളിലെ": 7400,
      "##സിറ്റി": 7401,
      "പ്രായ": 7402,
      "വർഗ്ഗ": 7403,
      "##േൽ": 7404,
      "മാർച്ച്": 7405,
      "വ്യക്ത": 7406,
      "##ഫല": 7407,
      "##ിവേഴ്": 7408,
      "##ബെ": 7409,
      "ഉയര": 7410,
      "##ിരിക്കുന്ന": 7411,
      "സ്കൂൾ": 7412,
      "ഭാര്യ": 7413,
      "ആത്മ": 7414,
      "##ദേവ": 7415,
      "##കളിലും": 7416,
      "##പോക": 7417,
      "പ്രദർശ": 7418,
      "ജൂലൈ": 7419,
      "കൊണ്ടു": 7420,
      "##ക്ഷേപ": 7421,
      "സംരക്ഷ": 7422,
      "##വയാണ്": 7423,
      "തീവ": 7424,
      "അഭിപ്രായ": 7425,
      "നാര": 7426,
      "വിര": 7427,
      "ചൂ": 7428,
      "##ീക": 7429,
      "##നാ": 7430,
      "##നാമ": 7431,
      "##ോഹ": 7432,
      "##േക്കുള്ള": 7433,
      "##ഡ്ര": 7434,
      "സ്ഥിര": 7435,
      "ആൽ": 7436,
      "വിമാന": 7437,
      "##സ്ഥാനം": 7438,
      "##ിക്കാം": 7439,
      "##ൊഴ": 7440,
      "##ികമായി": 7441,
      "ഫ്ല": 7442,
      "190": 7443,
      "##ബ്രുവരി": 7444,
      "വികസ": 7445,
      "28": 7446,
      "##ക്കായി": 7447,
      "ശൈ": 7448,
      "##ുകളില": 7449,
      "ഇവയുടെ": 7450,
      "പാർട്ടി": 7451,
      "താഴെ": 7452,
      "##മെന്ന്": 7453,
      "നക്ഷത്ര": 7454,
      "സമയം": 7455,
      "എഴുത്ത": 7456,
      "ലീ": 7457,
      "പീ": 7458,
      "##പരമായ": 7459,
      "##ോജ": 7460,
      "കോഴിക്ക": 7461,
      "കമ്പന": 7462,
      "##ന്മാര": 7463,
      "സിദ്ധ": 7464,
      "##ലാണ്": 7465,
      "##ത്തോളം": 7466,
      "##ോക്ക": 7467,
      "##ട്ടിൽ": 7468,
      "സർവകലാശാല": 7469,
      "സൂര്യ": 7470,
      "തെരഞ്ഞ": 7471,
      "##വിശ്യ": 7472,
      "പട": 7473,
      "കറു": 7474,
      "##ടുത്ത്": 7475,
      "##യിലൂടെ": 7476,
      "വന": 7477,
      "പുത്ര": 7478,
      "ഇന്ന": 7479,
      "ഉദാഹ": 7480,
      "##ദ്വ": 7481,
      "##ടുവ": 7482,
      "ഫെബ്രുവരി": 7483,
      "##കൾക്ക്": 7484,
      "##പ്പർ": 7485,
      "അനുവ": 7486,
      "ജോർ": 7487,
      "##സില": 7488,
      "ശ്വ": 7489,
      "കൊട്ട": 7490,
      "##ോട്ട്": 7491,
      "##സ്ര": 7492,
      "മഞ്ഞ": 7493,
      "വാക്ക": 7494,
      "##ക്കുള്ള": 7495,
      "അവസ്ഥ": 7496,
      "ഇന്ത്യയിൽ": 7497,
      "ജൂൺ": 7498,
      "##ർവ്വ": 7499,
      "നടപ്പ": 7500,
      "ചേർന്ന്": 7501,
      "ഹൃദ": 7502,
      "കപ്പ": 7503,
      "##സ്റ്റർ": 7504,
      "സ്ഥാനം": 7505,
      "##തോ": 7506,
      "##വാസ": 7507,
      "റെയിൽ": 7508,
      "എഡി": 7509,
      "##മായുള്ള": 7510,
      "പരാജ": 7511,
      "പുരാതന": 7512,
      "##ദായ": 7513,
      "##ത്ത്വ": 7514,
      "റേ": 7515,
      "##തിയിൽ": 7516,
      "ചതുരശ്ര": 7517,
      "സന്ദർശ": 7518,
      "##ൃഗ": 7519,
      "##ീൽ": 7520,
      "സത്യ": 7521,
      "##30": 7522,
      "വിശ്വാസ": 7523,
      "##ഹ്മ": 7524,
      "##ചിത്ര": 7525,
      "പ്രാധാന്": 7526,
      "ഡിസംബർ": 7527,
      "എഴുതിയ": 7528,
      "പ്രവിശ്യ": 7529,
      "പ്രകാശ": 7530,
      "വച്ച്": 7531,
      "അക്കാദമി": 7532,
      "ആണ": 7533,
      "ചിത്രീകര": 7534,
      "ഒറ്റ": 7535,
      "നാഷണൽ": 7536,
      "ഉണ്ടായി": 7537,
      "##ങ്കേ": 7538,
      "##ന്റി": 7539,
      "നിലവിൽ": 7540,
      "വലിപ്പ": 7541,
      "നിൽ": 7542,
      "##ിപ്പിക്കുന്നു": 7543,
      "##നിത": 7544,
      "നിർവ": 7545,
      "തൊഴില": 7546,
      "കോർ": 7547,
      "പോർ": 7548,
      "ആരാധ": 7549,
      "പ്രധാനമായും": 7550,
      "ആശയ": 7551,
      "ശക്ത": 7552,
      "കിട": 7553,
      "പേരു": 7554,
      "ഗ്ല": 7555,
      "തുടങ്ങ": 7556,
      "പൂർണ്ണ": 7557,
      "##ത്തം": 7558,
      "കോളേജ": 7559,
      "##ട്ടും": 7560,
      "പ്രത": 7561,
      "##്യൂണി": 7562,
      "പ്രമേ": 7563,
      "ബൈ": 7564,
      "ഒഴിവ": 7565,
      "##ാക്കൾ": 7566,
      "കെട്ടി": 7567,
      "##ികെ": 7568,
      "ശില": 7569,
      "പരിശീല": 7570,
      "##ർഗ": 7571,
      "എന്നത്": 7572,
      "കണ്ടെത്തി": 7573,
      "തുടക്ക": 7574,
      "##പാല": 7575,
      "##ഹിത": 7576,
      "##ളള": 7577,
      "40": 7578,
      "വേഗ": 7579,
      "##ഖ്": 7580,
      "##ിച്ചിരിക്കുന്നത്": 7581,
      "നിയമസഭ": 7582,
      "ഇങ്ങനെ": 7583,
      "സാധ്യത": 7584,
      "##റുക": 7585,
      "##െയർ": 7586,
      "ശേഖ": 7587,
      "നവംബർ": 7588,
      "പാത": 7589,
      "##ർഭ": 7590,
      "##ശല": 7591,
      "##ംസ്": 7592,
      "പിൻ": 7593,
      "യുവ": 7594,
      "##വര്‍": 7595,
      "ഇന്റർ": 7596,
      "##ിനോ": 7597,
      "##മം": 7598,
      "ചക്ര": 7599,
      "പുരസ്കാരം": 7600,
      "##റേയും": 7601,
      "മത്സര": 7602,
      "##ആർ": 7603,
      "##സ്ത്യ": 7604,
      "മ്യൂ": 7605,
      "##ാംഗ": 7606,
      "##ആം": 7607,
      "സാം": 7608,
      "ഡ്ര": 7609,
      "##ംഗിക": 7610,
      "അധ്യ": 7611,
      "വളര": 7612,
      "അവള": 7613,
      "##മന്ത്രി": 7614,
      "##ാണെന്ന്": 7615,
      "##ത്തേക്ക്": 7616,
      "ഒക്ടോബർ": 7617,
      "കയ": 7618,
      "##ാഗ്": 7619,
      "##തിനുള്ള": 7620,
      "##റ്റിക്": 7621,
      "##ാകും": 7622,
      "##സ്ഥിതി": 7623,
      "##ിയിൽ": 7624,
      "##ഭാഗം": 7625,
      "##ാന്റെ": 7626,
      "ഭഗവ": 7627,
      "കൃഷി": 7628,
      "##ക്ഷേത്ര": 7629,
      "താപ": 7630,
      "##ത്തിന്റെയും": 7631,
      "അദ്ദേഹത്തെ": 7632,
      "ഔദ്യോഗ": 7633,
      "കഴിവ": 7634,
      "പൂർത്തിയ": 7635,
      "##പ്പുഴ": 7636,
      "##ക്കുക": 7637,
      "പറഞ്ഞു": 7638,
      "##നീ": 7639,
      "##രമായ": 7640,
      "##ശിക്ഷ": 7641,
      "##എൻ": 7642,
      "##തിരി": 7643,
      "##േശ്വ": 7644,
      "ഇവയെ": 7645,
      "ആശ്ര": 7646,
      "മുട്ട": 7647,
      "##മ്പി": 7648,
      "അതേ": 7649,
      "പെൺ": 7650,
      "##ിയു": 7651,
      "##99": 7652,
      "നേട": 7653,
      "എഴുതി": 7654,
      "വർദ്ധ": 7655,
      "സ്ക": 7656,
      "വിത": 7657,
      "യൂണിവേഴ്": 7658,
      "##ന്മാരുടെ": 7659,
      "വിദ്യാഭ്യാസം": 7660,
      "##ാങ്ക": 7661,
      "##കാലം": 7662,
      "##ാൻഡ": 7663,
      "വിശദ": 7664,
      "കാന": 7665,
      "ഒന്നാം": 7666,
      "##ീപ്": 7667,
      "അംഗീകര": 7668,
      "മഴ": 7669,
      "##80": 7670,
      "അങ്ങനെ": 7671,
      "ആയു": 7672,
      "തൂ": 7673,
      "കാഴ്ച": 7674,
      "##യുടെയും": 7675,
      "നടത്തുന്ന": 7676,
      "വിഷയ": 7677,
      "എന്നിങ്ങനെ": 7678,
      "പരാജയ": 7679,
      "##സിസ്": 7680,
      "സാമ്രാജ്യ": 7681,
      "സ്വന്തം": 7682,
      "##വല": 7683,
      "ലൂ": 7684,
      "##സോ": 7685,
      "##ഞ്ജ": 7686,
      "ഡോക്ട": 7687,
      "ചുരു": 7688,
      "എങ്കിലും": 7689,
      "##60": 7690,
      "##സിയ": 7691,
      "##ാധിപ": 7692,
      "എൽ": 7693,
      "##ുകൾക്ക്": 7694,
      "##ിസ്ത": 7695,
      "##റായി": 7696,
      "ഗവ": 7697,
      "##ീരിയ": 7698,
      "മുമ്പ്": 7699,
      "##ിന്റെയും": 7700,
      "സ്വർ": 7701,
      "##ത്‌": 7702,
      "##ങ്ങൾക്കും": 7703,
      "##ിയായിരുന്നു": 7704,
      "തരം": 7705,
      "മുറ": 7706,
      "സംസാര": 7707,
      "##ിന്‍റെ": 7708,
      "##സിക": 7709,
      "സഹായ": 7710,
      "##65": 7711,
      "വിഭ": 7712,
      "##തമ": 7713,
      "##ത്തെയും": 7714,
      "##മാല": 7715,
      "കമ്പ്യൂട്ട": 7716,
      "##കുട": 7717,
      "ഘടക": 7718,
      "##െൻ": 7719,
      "റോമ": 7720,
      "2010": 7721,
      "യോഗ": 7722,
      "##ബ്ബ": 7723,
      "##യിട": 7724,
      "ടെലി": 7725,
      "വിദേശ": 7726,
      "പള്ള": 7727,
      "##േവി": 7728,
      "നീല": 7729,
      "##ാധിക": 7730,
      "##ാറ്": 7731,
      "##പിട": 7732,
      "ഇസ്ല": 7733,
      "##രോഗ": 7734,
      "പ്രതിരോധ": 7735,
      "വകു": 7736,
      "ജ്യ": 7737,
      "##ാസ്ത്രം": 7738,
      "ഹൃദയ": 7739,
      "##റ്റിൽ": 7740,
      "##84": 7741,
      "പുല": 7742,
      "അറി": 7743,
      "##മുറ": 7744,
      "പ്രദേശം": 7745,
      "##നാട്": 7746,
      "##ാമൻ": 7747,
      "##ാപക": 7748,
      "സ്ഥിതിചെയ്യുന്നത്": 7749,
      "കൊച്ചി": 7750,
      "പരാമ": 7751,
      "അനുസ": 7752,
      "മദ്ധ്യ": 7753,
      "##ർബ": 7754,
      "ആഫ്രിക്ക": 7755,
      "വിമ": 7756,
      "ഗവേഷണ": 7757,
      "##90": 7758,
      "ബല": 7759,
      "താലൂക്ക": 7760,
      "ഉണ്ടാക്ക": 7761,
      "ഉണ്ടായിരുന്നു": 7762,
      "തടാക": 7763,
      "ആകെ": 7764,
      "സമയത്ത്": 7765,
      "##ൈൻ": 7766,
      "സഹോദര": 7767,
      "ഭാഗം": 7768,
      "അവാർഡ്": 7769,
      "##ങ്കേതിക": 7770,
      "പ്രകൃതി": 7771,
      "ആരോഗ്യ": 7772,
      "മണ്ണ": 7773,
      "ഇലക്ട": 7774,
      "##മ്പോഴ": 7775,
      "##സിലെ": 7776,
      "##70": 7777,
      "##ന്മാരും": 7778,
      "തമ്മിൽ": 7779,
      "##ന്ധി": 7780,
      "##ുമ്പോൾ": 7781,
      "അർത്ഥ": 7782,
      "##തുണ": 7783,
      "##ട്ടം": 7784,
      "പോയി": 7785,
      "പോലുള്ള": 7786,
      "##64": 7787,
      "ബോർ": 7788,
      "##ക്രട്ട": 7789,
      "ചിന്ത": 7790,
      "##ഘോഷ": 7791,
      "##ക്കുകയും": 7792,
      "##ണ്‍": 7793,
      "##ായണ": 7794,
      "##ക്ക്‌": 7795,
      "##േഴ്സ്": 7796,
      "വൻ": 7797,
      "നിന്നാണ്": 7798,
      "##ുകളാണ്": 7799,
      "വേർ": 7800,
      "വ്യവസ": 7801,
      "നാഗ": 7802,
      "##ക്കൂ": 7803,
      "##േകം": 7804,
      "##സ്മ": 7805,
      "ഭാഗമായി": 7806,
      "##യുമായി": 7807,
      "സ്ഥാപന": 7808,
      "ചെയ്ത്": 7809,
      "##നിറ": 7810,
      "ശതമാനം": 7811,
      "മുമ്പ": 7812,
      "മാറ്റി": 7813,
      "100": 7814,
      "##ിച്ചിട്ടുള്ള": 7815,
      "ഏഷ്യ": 7816,
      "##ത്തായി": 7817,
      "നാലു": 7818,
      "രണ്ടാമത്തെ": 7819,
      "##ട്ടെ": 7820,
      "##പ്രതി": 7821,
      "##25": 7822,
      "മുഹമ്മദ്": 7823,
      "##കളാണ്": 7824,
      "##ക്കൽ": 7825,
      "##നിന്നു": 7826,
      "##ൈൽ": 7827,
      "പ്രതിനിധ": 7828,
      "##പ്പെടുത്തിയ": 7829,
      "##ത്തുന്ന": 7830,
      "നശ": 7831,
      "ഇറ്റ": 7832,
      "പാകിസ്ത": 7833,
      "50": 7834,
      "##ാഫ": 7835,
      "മരുന്ന": 7836,
      "##കളില": 7837,
      "ക്വ": 7838,
      "തീർ": 7839,
      "ലൈംഗിക": 7840,
      "##പ്ത": 7841,
      "സാധാരണയായി": 7842,
      "മുതലായ": 7843,
      "ബംഗ": 7844,
      "തമ്മിലുള്ള": 7845,
      "പ്രതിഷ്ഠ": 7846,
      "##ിക്കാന": 7847,
      "പരാമർശ": 7848,
      "എഴുത": 7849,
      "എതി": 7850,
      "34": 7851,
      "ദേശീയോദ്യാന": 7852,
      "ഉദാഹരണ": 7853,
      "നൽകുന്ന": 7854,
      "പുതു": 7855,
      "##സ്ക": 7856,
      "നഗരം": 7857,
      "ഗ്രീ": 7858,
      "ആരംഭിച്ചു": 7859,
      "ബിരുദ": 7860,
      "ടീമ": 7861,
      "നിലയിൽ": 7862,
      "ഓഫ": 7863,
      "ദൂര": 7864,
      "##ൽത്ത": 7865,
      "##ർത്ഥ": 7866,
      "##75": 7867,
      "##വിധായക": 7868,
      "സേന": 7869,
      "ഗ്രൂ": 7870,
      "കടന്നു": 7871,
      "പണ": 7872,
      "വ്യാ": 7873,
      "##േസ": 7874,
      "ഉൾപ്പെടുന്നു": 7875,
      "ഒരേ": 7876,
      "ഏതാ": 7877,
      "പള്ളി": 7878,
      "തങ്ങളുടെ": 7879,
      "വീട": 7880,
      "ഒരാള": 7881,
      "##യുന്ന": 7882,
      "##ുതി": 7883,
      "രാത്ര": 7884,
      "##റുടെ": 7885,
      "##തിയും": 7886,
      "##െങ്കില്‍": 7887,
      "വരെയുള്ള": 7888,
      "ക്രമ": 7889,
      "##ിക്കാര": 7890,
      "മത്സ്യ": 7891,
      "നമ്മ": 7892,
      "##കൃഷ്ണ": 7893,
      "പഠനം": 7894,
      "നിർമ്മിച്ച": 7895,
      "എയർ": 7896,
      "##വരുടെ": 7897,
      "കാണുന്ന": 7898,
      "##നാഥ": 7899,
      "ഭൂരി": 7900,
      "ചേർന്നു": 7901,
      "##ട്ടാണ്": 7902,
      "പ്രത്യേകത": 7903,
      "കമ്പനി": 7904,
      "##ബാധ": 7905,
      "##ന്നത": 7906,
      "മെഡ": 7907,
      "അറിയപ്പെടുന്ന": 7908,
      "തവണ": 7909,
      "##ത്താവ": 7910,
      "ലക്ഷ്യ": 7911,
      "ഒട്ട": 7912,
      "കണ": 7913,
      "##ജെ": 7914,
      "##ഷ്പ": 7915,
      "സർക്കാര": 7916,
      "നല്": 7917,
      "കാണപ്പെടുന്ന": 7918,
      "##നായിരുന്ന": 7919,
      "##വുമാണ്": 7920,
      "പ്രത്യക്ഷ": 7921,
      "##ഭാവന": 7922,
      "രാസ": 7923,
      "##ിപ്പിച്ചു": 7924,
      "##േഷ്": 7925,
      "##േക്കാൾ": 7926,
      "ചലച്ചിത്രം": 7927,
      "##തെ": 7928,
      "##കരണം": 7929,
      "##ിരുന്നത്": 7930,
      "മുഴുവൻ": 7931,
      "തര": 7932,
      "മൗ": 7933,
      "ഗ്രാമപഞ്ചായത്ത്": 7934,
      "പിന്തുണ": 7935,
      "##ഷധ": 7936,
      "##ങ്ങളില്‍": 7937,
      "##ിൻ": 7938,
      "ഉൾപ്പെട": 7939,
      "ജയ": 7940,
      "ക്രിക്ക": 7941,
      "സ്വാതന്ത്ര്യ": 7942,
      "##ാവിക": 7943,
      "##ദഗ്": 7944,
      "നേതാവ": 7945,
      "##ാബ്": 7946,
      "ജർമ്മ": 7947,
      "പാറ": 7948,
      "നിർമ്മാ": 7949,
      "##85": 7950,
      "##ൃശ്യ": 7951,
      "##രിച്ചു": 7952,
      "അതിനാൽ": 7953,
      "മുൻപ്": 7954,
      "##ാക്ക്": 7955,
      "സ്വാധീന": 7956,
      "എന്നിവര": 7957,
      "തലസ്ഥാന": 7958,
      "നൂറ്റാണ്ടിൽ": 7959,
      "ഏതാണ്ട്": 7960,
      "കൊള": 7961,
      "##ൽഹി": 7962,
      "ചിത്രത്തിൽ": 7963,
      "##ക്കൊള്ള": 7964,
      "നിശ്ച": 7965,
      "##േസ്": 7966,
      "##ണ്ഡിത": 7967,
      "സർവ്വകലാശാല": 7968,
      "##ന്ത്യ": 7969,
      "##ത്തന്നെ": 7970,
      "ശക്തി": 7971,
      "എണ്ണം": 7972,
      "##ഭരണ": 7973,
      "##ാണ്ഡ": 7974,
      "സെക്രട്ട": 7975,
      "##ൈറ്റ": 7976,
      "വധശിക്ഷ": 7977,
      "##േറെ": 7978,
      "##വിതാം": 7979,
      "തത്ത്വ": 7980,
      "##ക്കാട്": 7981,
      "##ടുത്തെ": 7982,
      "സൈന്യ": 7983,
      "29": 7984,
      "കോശ": 7985,
      "കോഴിക്കോട്": 7986,
      "വികസിപ്പ": 7987,
      "##എൽ": 7988,
      "##ാവശ്യ": 7989,
      "ശ്രദ്ധേയ": 7990,
      "ആൻഡ്": 7991,
      "##ജൻ": 7992,
      "##ോക്ക്": 7993,
      "ഗുണ": 7994,
      "എന്ത": 7995,
      "##വശ": 7996,
      "##കഥ": 7997,
      "##ക്കുറിച്ചുള്ള": 7998,
      "ജനിച്ചത്": 7999,
      "##ിവെ": 8000,
      "തിരുവനന്തപുരം": 8001,
      "പ്രോഗ്ര": 8002,
      "##താപ": 8003,
      "കാലി": 8004,
      "##ുമുള്ള": 8005,
      "ഇദ്ദേഹത്തിന്റെ": 8006,
      "കുടിയ": 8007,
      "##സിന": 8008,
      "##വിള": 8009,
      "ലഭിച്ച": 8010,
      "കുറവ": 8011,
      "പെരു": 8012,
      "##ുടി": 8013,
      "##റ്റംബർ": 8014,
      "ഇതിന്": 8015,
      "##ർന്നു": 8016,
      "##വർഷ": 8017,
      "##േള": 8018,
      "##ങ്കര": 8019,
      "##ര്‍ഭ": 8020,
      "##വള": 8021,
      "##ീറ്ററ": 8022,
      "##73": 8023,
      "ചെയ്തത്": 8024,
      "അവരെ": 8025,
      "##ോളി": 8026,
      "വേഷ": 8027,
      "സേവന": 8028,
      "##വൈ": 8029,
      "##ിക്കേണ്ട": 8030,
      "വേദ": 8031,
      "ആദ്യകാല": 8032,
      "കാസ": 8033,
      "##കര്യ": 8034,
      "അകല": 8035,
      "പ്രധാനപ്പെട്ട": 8036,
      "അമ്പ": 8037,
      "##ാവു": 8038,
      "കൃത്യ": 8039,
      "സ്വഭാവ": 8040,
      "നിര്‍": 8041,
      "കീഴിൽ": 8042,
      "കിഴക്കൻ": 8043,
      "##വംശ": 8044,
      "##ഡെ": 8045,
      "സിസ്റ്റ": 8046,
      "##24": 8047,
      "രീതിയിൽ": 8048,
      "21": 8049,
      "##ലിം": 8050,
      "അവയുടെ": 8051,
      "ചെല": 8052,
      "##ിക്കുന്നുണ്ട്": 8053,
      "##പ്പോള്‍": 8054,
      "നാട്ട": 8055,
      "##നിലെ": 8056,
      "രോഗം": 8057,
      "##ാകൃ": 8058,
      "മെയ്": 8059,
      "പ്രോ": 8060,
      "സാങ്കേതിക": 8061,
      "വെള്ളം": 8062,
      "തിരുവിതാം": 8063,
      "ലേഖ": 8064,
      "ഇന്ത്യയുടെ": 8065,
      "ആറ": 8066,
      "##തായിരുന്നു": 8067,
      "വിദ്യാർത്ഥ": 8068,
      "നിലനിൽ": 8069,
      "##ാശ്": 8070,
      "സൊ": 8071,
      "സെപ്റ്റംബർ": 8072,
      "വിമർശ": 8073,
      "##ിക്കണം": 8074,
      "##ാഗ്ര": 8075,
      "പ്രാദേശ": 8076,
      "##നാട്ട": 8077,
      "മധ": 8078,
      "അച്ച": 8079,
      "##മാണു": 8080,
      "ടോ": 8081,
      "##്ഞ": 8082,
      "ഉറപ്പ": 8083,
      "കരി": 8084,
      "ഭൂമ": 8085,
      "##യൽ": 8086,
      "##74": 8087,
      "മാത്രമാണ്": 8088,
      "ഏർ": 8089,
      "ചെന്ന": 8090,
      "##ചര്യ": 8091,
      "കോളേജ്": 8092,
      "##ത്തുടർന്ന്": 8093,
      "##ാൻഡ്": 8094,
      "കുന്ന": 8095,
      "ചല": 8096,
      "##ുവേണ്ടി": 8097,
      "തിരക്ക": 8098,
      "ഉത്സ": 8099,
      "##79": 8100,
      "##ംസ": 8101,
      "##63": 8102,
      "വടക്കു": 8103,
      "നായർ": 8104,
      "അഗ": 8105,
      "പറയുന്നത്": 8106,
      "##ിക്കാനും": 8107,
      "കൊല്ലം": 8108,
      "വസ": 8109,
      "സവിശേഷ": 8110,
      "##ശ്ശേരി": 8111,
      "##വരും": 8112,
      "പ്രേ": 8113,
      "മണിക്ക": 8114,
      "##ുന്നുണ്ട്": 8115,
      "വിപ്ല": 8116,
      "##ങ്ങളുടെയും": 8117,
      "189": 8118,
      "##ബിൾ": 8119,
      "##റിലെ": 8120,
      "വടക്കൻ": 8121,
      "അപ്പ": 8122,
      "ഓഗ": 8123,
      "വ്യവസ്ഥ": 8124,
      "വരുന്നു": 8125,
      "ആകർഷ": 8126,
      "##ൈറ്റ്": 8127,
      "ഫോ": 8128,
      "##റ്റിറ്റ": 8129,
      "പോലും": 8130,
      "##രുദ്ധ": 8131,
      "സയ": 8132,
      "##രിക്കുന്നത്": 8133,
      "ഉപകരണ": 8134,
      "##പാ": 8135,
      "നിലവ": 8136,
      "ശതമാന": 8137,
      "തിരഞ്ഞെടുക്ക": 8138,
      "വയസ്സിൽ": 8139,
      "എഴുത്തുകാര": 8140,
      "##ൊര": 8141,
      "##ിച്ചാണ്": 8142,
      "ഘട്ട": 8143,
      "ലാ": 8144,
      "പ്രക": 8145,
      "പകരം": 8146,
      "44": 8147,
      "ഉത്ത": 8148,
      "##ോളജി": 8149,
      "പുറത്ത": 8150,
      "##ദിന": 8151,
      "##റ്റർ": 8152,
      "സംഭാവന": 8153,
      "##്ള": 8154,
      "##ാണു്": 8155,
      "ആസ്ഥാന": 8156,
      "ഭൗ": 8157,
      "##മാരുടെ": 8158,
      "ജില്ലയിൽ": 8159,
      "കന": 8160,
      "സാമൂഹിക": 8161,
      "ഇൻസ്": 8162,
      "വളരെയ": 8163,
      "##ീവി": 8164,
      "##ോർട്ട്": 8165,
      "##യ്‌": 8166,
      "##ായുള്ള": 8167,
      "സ്ഥലം": 8168,
      "##ൊന്നും": 8169,
      "ശിക്ഷ": 8170,
      "റോഡ": 8171,
      "##ിയിരുന്നു": 8172,
      "##ർജ്ജ": 8173,
      "ഔഷധ": 8174,
      "തുടർന്നു": 8175,
      "രൂപീകര": 8176,
      "##ിക്കോ": 8177,
      "വായി": 8178,
      "പ്രയോഗ": 8179,
      "##കമായി": 8180,
      "##പ്പെട്ടിരുന്നു": 8181,
      "സമ്": 8182,
      "നിർമ": 8183,
      "യൂറോപ": 8184,
      "സജീവ": 8185,
      "വിനോദ": 8186,
      "പിടിച്ച": 8187,
      "##കുന്ന": 8188,
      "##89": 8189,
      "പിതാവ്": 8190,
      "ഗര്‍ഭ": 8191,
      "മട": 8192,
      "##മിതി": 8193,
      "പ്രൊഫ": 8194,
      "##ചരി": 8195,
      "പോര": 8196,
      "കുള": 8197,
      "##ായാണ്": 8198,
      "അദ്ദേഹത്തിന്": 8199,
      "##ുകയാണ്": 8200,
      "കലാപ": 8201,
      "##ാവും": 8202,
      "സുരക്ഷ": 8203,
      "ഐക്യനാട": 8204,
      "ഇഷ്ട": 8205,
      "##ുകാല": 8206,
      "##ക്കളുടെ": 8207,
      "##ിയറ്റ്": 8208,
      "##ാദ്": 8209,
      "##സ്തി": 8210,
      "##ിക്കപ്പെടുന്നു": 8211,
      "വര്‍": 8212,
      "##ക്ഷേത്രം": 8213,
      "ചിറ": 8214,
      "##ാവുന്നതാണ്": 8215,
      "ജപ്പ": 8216,
      "നല്‍": 8217,
      "മരു": 8218,
      "##മാസ": 8219,
      "മഹാ": 8220,
      "ഉദ്യോഗ": 8221,
      "##ുല": 8222,
      "##ൂരിൽ": 8223,
      "യഹ": 8224,
      "##മാരി": 8225,
      "##ിക്കാനുള്ള": 8226,
      "വാത": 8227,
      "##വസ്ഥ": 8228,
      "##ചി": 8229,
      "##‌വ": 8230,
      "ഒരിക്ക": 8231,
      "##29": 8232,
      "##ുകൂടി": 8233,
      "##23": 8234,
      "ചിത്രത്തിന്റെ": 8235,
      "##രക്ഷണ": 8236,
      "##ൈഡ്": 8237,
      "മലബ": 8238,
      "##83": 8239,
      "കുഴ": 8240,
      "##സും": 8241,
      "ജനിച്ച": 8242,
      "പറ്റ": 8243,
      "##ാനിലെ": 8244,
      "അയ്യ": 8245,
      "വാസ്": 8246,
      "##ക്കർ": 8247,
      "##ാകാര": 8248,
      "നിയന്ത്രണ": 8249,
      "സുഹ": 8250,
      "ക്രിസ്തു": 8251,
      "പ്രശ്ന": 8252,
      "മൃഗ": 8253,
      "വാഹ": 8254,
      "##ചലച്ചിത്ര": 8255,
      "മേൽ": 8256,
      "##ശാസ്ത്രജ്ഞ": 8257,
      "അച്ഛ": 8258,
      "##റേ": 8259,
      "യുദ്ധം": 8260,
      "##മിക": 8261,
      "##69": 8262,
      "##പട": 8263,
      "അറിയപ്പെടുന്നത്": 8264,
      "ഔദ്യോഗിക": 8265,
      "##ക്കിടയിൽ": 8266,
      "##ട്ടുണ്ട": 8267,
      "ശബ്ദ": 8268,
      "33": 8269,
      "##തെന്ന്": 8270,
      "ലോകത്തിലെ": 8271,
      "##വസ്തു": 8272,
      "പ്രവർത്തിക്കുന്ന": 8273,
      "##പ്പൻ": 8274,
      "##്യു": 8275,
      "അപകട": 8276,
      "നടക്കുന്ന": 8277,
      "കടല": 8278,
      "ഫ്രഞ്ച്": 8279,
      "വിശുദ്ധ": 8280,
      "അനുവദ": 8281,
      "ഫിലി": 8282,
      "മോഹ": 8283,
      "മണ": 8284,
      "##കളിലെ": 8285,
      "##ായു": 8286,
      "തെക്കു": 8287,
      "##മാറ്റ": 8288,
      "മുസ്": 8289,
      "സെന്റ": 8290,
      "##ാന്റ്": 8291,
      "##പയോഗ": 8292,
      "പരിച": 8293,
      "ഇന": 8294,
      "ത്ര": 8295,
      "##ുകയായിരുന്നു": 8296,
      "നൃത്ത": 8297,
      "സിദ്ധാന്ത": 8298,
      "ദർശ": 8299,
      "##ക്വ": 8300,
      "പ്രഭ": 8301,
      "##ർല": 8302,
      "##വിഭാഗ": 8303,
      "വെളു": 8304,
      "##ാക്കാൻ": 8305,
      "##ണ്യ": 8306,
      "ശുദ്ധ": 8307,
      "പിന്ത": 8308,
      "##ിക്കുമ്പോൾ": 8309,
      "ചൊ": 8310,
      "ബേ": 8311,
      "##പതി": 8312,
      "കഴിയും": 8313,
      "##രിൽ": 8314,
      "കണ്ടുവ": 8315,
      "ഇന്നത്തെ": 8316,
      "##ാനോ": 8317,
      "##വേദ": 8318,
      "##ൂടെയാണ്": 8319,
      "രചിച്ച": 8320,
      "മൈൽ": 8321,
      "ഓസ്ട്ര": 8322,
      "കൺ": 8323,
      "##ാർട്ട": 8324,
      "2012": 8325,
      "കൊണ്ടുവ": 8326,
      "പ്രസ്ഥാന": 8327,
      "ആളുകൾ": 8328,
      "ശ്രീല": 8329,
      "2014": 8330,
      "അഭിനയിച്ച": 8331,
      "##ൂറ": 8332,
      "കാലം": 8333,
      "##തരം": 8334,
      "സെൻസ": 8335,
      "പശ്ചിമ": 8336,
      "വശ": 8337,
      "##ിൾ": 8338,
      "##ുപത്ര": 8339,
      "##ബോ": 8340,
      "കോടി": 8341,
      "##ിക്കുകയുണ്ടായി": 8342,
      "##െന്നാണ്": 8343,
      "ചർച്ച": 8344,
      "##പ്പറ്റി": 8345,
      "ഇള": 8346,
      "തിരഞ്ഞെടു": 8347,
      "##ശാസ്ത്രം": 8348,
      "സെന്റ്": 8349,
      "നാല്": 8350,
      "പത": 8351,
      "കാലാവസ്ഥ": 8352,
      "കണ്ടെത്തിയ": 8353,
      "##വാഹ": 8354,
      "##ക്ഷൻ": 8355,
      "ശാസ്ത്രീയ": 8356,
      "ചക്രവർത്ത": 8357,
      "##ക്ല": 8358,
      "##ടുവിൽ": 8359,
      "##ല്ലി": 8360,
      "ആഘോഷ": 8361,
      "##ോതി": 8362,
      "എന്നറിയപ്പെടുന്ന": 8363,
      "##നവും": 8364,
      "##മൂലം": 8365,
      "ജനങ്ങൾ": 8366,
      "##ാഴ്ച": 8367,
      "പ്രാദേശിക": 8368,
      "##ഷേ": 8369,
      "##റ്റു": 8370,
      "##ങ്ങളെയും": 8371,
      "സമര": 8372,
      "മാത്രമല്ല": 8373,
      "ഭക്ഷണം": 8374,
      "അണു": 8375,
      "റൂ": 8376,
      "##ണർ": 8377,
      "##ഫോ": 8378,
      "ദൈ": 8379,
      "##പതാം": 8380,
      "##ന്തോ": 8381,
      "45": 8382,
      "##ിയായിരുന്ന": 8383,
      "##വിഷൻ": 8384,
      "അവൾ": 8385,
      "##പ്പുറം": 8386,
      "സോഫ്": 8387,
      "ബിരുദം": 8388,
      "##േക്കും": 8389,
      "##മായാണ്": 8390,
      "പ്രവർത്തനങ്ങൾ": 8391,
      "പലപ്പോഴും": 8392,
      "##ുഖ": 8393,
      "##റണ": 8394,
      "വാസ": 8395,
      "##സാഹ": 8396,
      "##സേന": 8397,
      "##ർത്തു": 8398,
      "നിയമം": 8399,
      "സംസ്കൃത": 8400,
      "തെളിവ": 8401,
      "ഇൻസ്റ്റിറ്റ": 8402,
      "##തിയാണ്": 8403,
      "2013": 8404,
      "##ാത്മ": 8405,
      "ജീവിതം": 8406,
      "##ാങ്": 8407,
      "##പ്പിന്റെ": 8408,
      "ഉൾക്കൊള്ള": 8409,
      "വിൽ": 8410,
      "##ങ്ങളുണ്ട്": 8411,
      "##സര": 8412,
      "പൗര": 8413,
      "പിന്തുട": 8414,
      "നേതൃത്വത്തിൽ": 8415,
      "അനേകം": 8416,
      "ചുമതല": 8417,
      "##ംഹ": 8418,
      "നിറഞ്ഞ": 8419,
      "പണ്ഡിത": 8420,
      "അബ്": 8421,
      "##്രമ": 8422,
      "##െട്ട": 8423,
      "സ്പീഷ": 8424,
      "അഡ": 8425,
      "##ുകൊണ്ടു": 8426,
      "പറയുന്ന": 8427,
      "ലണ്ട": 8428,
      "##ായിരിക്കും": 8429,
      "185": 8430,
      "വീട്ട": 8431,
      "ഫില": 8432,
      "##കുട്ട": 8433,
      "പാരമ്പര": 8434,
      "യൂണിവേഴ്സിറ്റി": 8435,
      "സീ": 8436,
      "തോമ": 8437,
      "തൃശ്ശ": 8438,
      "കാട്ട": 8439,
      "##ൂദ": 8440,
      "##ക്ടർ": 8441,
      "ആക്രമണ": 8442,
      "കന്ന": 8443,
      "##മിന": 8444,
      "യഥാർത്ഥ": 8445,
      "##തയുടെ": 8446,
      "##ാധികാര": 8447,
      "അഗ്": 8448,
      "2016": 8449,
      "അവിട": 8450,
      "##മില്ലാത്ത": 8451,
      "തെക്കൻ": 8452,
      "##ഡൻ": 8453,
      "##ങ്ങളുമായി": 8454,
      "##യ്ക്കുന്ന": 8455,
      "ബുദ്ധി": 8456,
      "എന്നതാണ്": 8457,
      "താഴ്": 8458,
      "##ൊക്ക": 8459,
      "ചെയ്യാൻ": 8460,
      "##ന്‍റ": 8461,
      "##ാതിരിക്ക": 8462,
      "##വിഷ": 8463,
      "##രീതി": 8464,
      "##ക്കട": 8465,
      "##ത്തിന്‍": 8466,
      "##ാറ്റ്": 8467,
      "##ഗം": 8468,
      "##ുകയോ": 8469,
      "കറുത്ത": 8470,
      "##ബ്ലി": 8471,
      "നന്ന": 8472,
      "##ഷ്‌": 8473,
      "വ്യവസായ": 8474,
      "ബ്രിട്ടീഷ": 8475,
      "ഉച്ച": 8476,
      "##ണിൽ": 8477,
      "##ിച്ചിരിക്കുന്ന": 8478,
      "ഉത്പാദ": 8479,
      "##ിന്ദ": 8480,
      "നു": 8481,
      "നിർവ്വ": 8482,
      "##ഭാഗത്ത്": 8483,
      "##ത്താൽ": 8484,
      "ഒന്നാണ്": 8485,
      "സമാന": 8486,
      "പൂജ": 8487,
      "##കരമായ": 8488,
      "മാതൃക": 8489,
      "##ക്ഷം": 8490,
      "കാലഘട്ടത്തിൽ": 8491,
      "##സ്കാരിക": 8492,
      "##ുണ്ടായിരുന്ന": 8493,
      "അഫ്": 8494,
      "പരസ്പ": 8495,
      "##ങ്ങിയി": 8496,
      "##പ്പും": 8497,
      "##ഹാരം": 8498,
      "##ക്കര": 8499,
      "കിട്ട": 8500,
      "താരതമ": 8501,
      "ഏഴ": 8502,
      "കാണുന്നു": 8503,
      "അതിനെ": 8504,
      "വളർച്ച": 8505,
      "മലയാളചലച്ചിത്ര": 8506,
      "നര": 8507,
      "ഓഗസ്റ്റ്": 8508,
      "ബഹു": 8509,
      "പര്യ": 8510,
      "വിസ്തീർ": 8511,
      "ശരാശ": 8512,
      "##ിനുള്ള": 8513,
      "മംഗ": 8514,
      "##ജീവിത": 8515,
      "##മർ": 8516,
      "ലേ": 8517,
      "വാല": 8518,
      "അത്യ": 8519,
      "ഉദ്": 8520,
      "കെട്ടിട": 8521,
      "##തുക": 8522,
      "##ിപ്പ്": 8523,
      "##ജ്ഞാന": 8524,
      "##ചിന്ത": 8525,
      "##വർക്ക്": 8526,
      "രാ": 8527,
      "##ാവകാശ": 8528,
      "##യുണ്ട്": 8529,
      "അലി": 8530,
      "എന്നിവിടങ്ങളിൽ": 8531,
      "##ശ്യം": 8532,
      "ജനറൽ": 8533,
      "ഉൾപ്പെടുന്ന": 8534,
      "##ിതമായി": 8535,
      "##പ്പെട്ടത്": 8536,
      "എക്സ": 8537,
      "ശാസ്ത്രജ്ഞ": 8538,
      "##മഹ": 8539,
      "##ത്തിന്‍റെ": 8540,
      "ഒഴിവാക്ക": 8541,
      "##മുട്ട": 8542,
      "##ുണ്ടായിരുന്നു": 8543,
      "##86": 8544,
      "കൊല": 8545,
      "ചെയ്തിരുന്നു": 8546,
      "അക്ഷര": 8547,
      "##ർവ്വത": 8548,
      "കൊട്ടാര": 8549,
      "പുക": 8550,
      "##ളവ": 8551,
      "എന്നിവയും": 8552,
      "തോന്ന": 8553,
      "സെൻ": 8554,
      "പുരസ്കാര": 8555,
      "ജോസ": 8556,
      "സ്ട്ര": 8557,
      "പ്രവർത്തിച്ചു": 8558,
      "പടിഞ്ഞാറൻ": 8559,
      "കമ്മ്യൂണി": 8560,
      "തന്നെയാണ്": 8561,
      "##റണാകു": 8562,
      "രാവ": 8563,
      "ഷെ": 8564,
      "ശ്രീലങ്ക": 8565,
      "മേയ്": 8566,
      "ആശുപത്ര": 8567,
      "നിർവഹ": 8568,
      "##രേഖ": 8569,
      "2015": 8570,
      "യൂറോപ്യൻ": 8571,
      "##സമ്മ": 8572,
      "ഉപേക്ഷ": 8573,
      "##ങ്ങളിലൊന്ന": 8574,
      "പാർട്ട": 8575,
      "അഭിനയ": 8576,
      "##സഞ്ച": 8577,
      "ഇവരുടെ": 8578,
      "##പെട": 8579,
      "ചെറുക": 8580,
      "##ന്യം": 8581,
      "എന്നിവയുടെ": 8582,
      "വേദന": 8583,
      "തെക്ക്": 8584,
      "##കോശ": 8585,
      "ത്": 8586,
      "ശു": 8587,
      "##ാനെ": 8588,
      "ആഭ": 8589,
      "2008": 8590,
      "##ീർഘ": 8591,
      "നൈ": 8592,
      "ആരോ": 8593,
      "തിയ": 8594,
      "##ോറി": 8595,
      "വിധേയ": 8596,
      "ഇൻഡ": 8597,
      "##ാട്ട്": 8598,
      "ഈജി": 8599,
      "തദ്ദേശ": 8600,
      "##ാരു": 8601,
      "പ്രക്രിയ": 8602,
      "ലഭിക്കുന്ന": 8603,
      "##മട": 8604,
      "വെച്ച്": 8605,
      "##തിയെ": 8606,
      "##പടിഞ്ഞ": 8607,
      "##െയോ": 8608,
      "സംവിധായക": 8609,
      "ഹിന്ദി": 8610,
      "എച്ച്": 8611,
      "##േഷന": 8612,
      "##പ്രദ": 8613,
      "##11": 8614,
      "കാലിഫോർ": 8615,
      "##സ്കോ": 8616,
      "##യ്ക്കുള്ള": 8617,
      "താൻ": 8618,
      "ഉപയോഗിക്കുന്നത്": 8619,
      "പോലീസ്": 8620,
      "ജന്മ": 8621,
      "മിനി": 8622,
      "അഭ്യ": 8623,
      "ഉദ്യോഗസ്ഥ": 8624,
      "##ലോക": 8625,
      "##പറ": 8626,
      "സ്വകാര്യ": 8627,
      "പരമ്പരാഗത": 8628,
      "##ിക്കുവാൻ": 8629,
      "2009": 8630,
      "കൃഷ": 8631,
      "മാർഗ്ഗ": 8632,
      "##ടക്കം": 8633,
      "മന്ത്രി": 8634,
      "##രിക": 8635,
      "തിരക്കഥ": 8636,
      "##ക്രി": 8637,
      "##പദ": 8638,
      "##കളായി": 8639,
      "##87": 8640,
      "സാഹചര്യ": 8641,
      "വിപ്ലവ": 8642,
      "ഗണിത": 8643,
      "ഗോൾ": 8644,
      "ഉടമ": 8645,
      "ഒഴുക": 8646,
      "##ീരം": 8647,
      "സഞ്ചാര": 8648,
      "ദൂ": 8649,
      "റീ": 8650,
      "32": 8651,
      "##്മെ": 8652,
      "ആഗ്രഹ": 8653,
      "മുംബ": 8654,
      "##ത്യം": 8655,
      "2000": 8656,
      "##െടുക്കുന്ന": 8657,
      "അപേക്ഷ": 8658,
      "##ികളായ": 8659,
      "നൂറ്റാണ്ടിന്റെ": 8660,
      "##ലീ": 8661,
      "ഡയ": 8662,
      "##നത്തിന്റെ": 8663,
      "##തു്": 8664,
      "അഞ്ചു": 8665,
      "ദുര": 8666,
      "##വിൻ": 8667,
      "##തിഹ": 8668,
      "വാണി": 8669,
      "പോള": 8670,
      "##ശു": 8671,
      "പാട്ട": 8672,
      "തിരിച്ചറിയ": 8673,
      "പിൽ": 8674,
      "##82": 8675,
      "##ിയ്ക്ക": 8676,
      "ഘടന": 8677,
      "കമ്മി": 8678,
      "എഞ്ച": 8679,
      "##ാൻസ്": 8680,
      "അഞ്ച്": 8681,
      "മലയാളം": 8682,
      "വ്യത്യാസ": 8683,
      "##ീകരണം": 8684,
      "അവർക്ക്": 8685,
      "ജ്യോതി": 8686,
      "നോർ": 8687,
      "മരണം": 8688,
      "##ഭൂമി": 8689,
      "##ർജ": 8690,
      "നിലവില": 8691,
      "ഡയറ": 8692,
      "##ോടും": 8693,
      "സാമൂഹ്യ": 8694,
      "വൃത്ത": 8695,
      "##ങ്ങളു": 8696,
      "##ിലേക്കു": 8697,
      "##ഷണ": 8698,
      "##കൂർ": 8699,
      "ഉയരം": 8700,
      "ഗോവ": 8701,
      "##ഷേധ": 8702,
      "പുറമേ": 8703,
      "എറണാകു": 8704,
      "##ന്തി": 8705,
      "##്യൂട്ട്": 8706,
      "മാല": 8707,
      "ചേര്‍": 8708,
      "പ്രവർത്തനം": 8709,
      "##ണമെന്ന": 8710,
      "##ളിച്ച": 8711,
      "ചെയ്യും": 8712,
      "വിഭാഗത്തിൽ": 8713,
      "കരുതപ്പെടുന്നു": 8714,
      "##ിപ്പിച്ച": 8715,
      "ചിത്രങ്ങൾ": 8716,
      "അപൂർ": 8717,
      "സംസ്കാര": 8718,
      "##ികളാണ്": 8719,
      "പ്രചാര": 8720,
      "##നഗ": 8721,
      "##റിയൻ": 8722,
      "സുപ്ര": 8723,
      "പ്രസിഡന്റ": 8724,
      "പരീക്ഷണ": 8725,
      "മറ്റുള്ള": 8726,
      "പോയ": 8727,
      "ഇതേ": 8728,
      "അരി": 8729,
      "##ാഹ്മ": 8730,
      "സ്റ്റേറ്റ്": 8731,
      "##സിദ്ധ": 8732,
      "##ാറും": 8733,
      "##സിനെ": 8734,
      "അതിന": 8735,
      "അധികം": 8736,
      "കുത്ത": 8737,
      "താപനില": 8738,
      "ദ്": 8739,
      "നിത്യ": 8740,
      "##തര": 8741,
      "##40": 8742,
      "##ർണ": 8743,
      "##ിനീയ": 8744,
      "കമ": 8745,
      "##മെന്നും": 8746,
      "##ാരംഭ": 8747,
      "വിമാനത്താവ": 8748,
      "ഗോത്ര": 8749,
      "കാൽ": 8750,
      "കാലിഫോർണിയ": 8751,
      "ദീർഘ": 8752,
      "കത്ത": 8753,
      "അഗ്നി": 8754,
      "കായ": 8755,
      "##ാന്തര": 8756,
      "##േല": 8757,
      "##ഴിഞ്ഞ": 8758,
      "മുംബൈ": 8759,
      "##ാഡ": 8760,
      "43": 8761,
      "##റ്റൻ": 8762,
      "##നട": 8763,
      "തിരിച്ചു": 8764,
      "സംഗീതം": 8765,
      "പ്രാഥ": 8766,
      "##ർക്ക്": 8767,
      "ക്യൂ": 8768,
      "ചോ": 8769,
      "##മതി": 8770,
      "##ോഭ": 8771,
      "കുഞ്ഞു": 8772,
      "##സ്റ്റി": 8773,
      "യേശ": 8774,
      "ആൾ": 8775,
      "##തയും": 8776,
      "##ുടേ": 8777,
      "നിരീക്ഷ": 8778,
      "ഇതിന": 8779,
      "കിര": 8780,
      "##ംപ": 8781,
      "##താപിത": 8782,
      "തന": 8783,
      "അതിർത്തി": 8784,
      "##യുക്ത": 8785,
      "##66": 8786,
      "അവളുടെ": 8787,
      "വെബ്": 8788,
      "##റ്റോ": 8789,
      "നൽകിയി": 8790,
      "##ാനിയ": 8791,
      "ടെലിവിഷൻ": 8792,
      "അറിവ": 8793,
      "##സഹ": 8794,
      "ഉണ്ടായിരുന്ന": 8795,
      "വടക്ക്": 8796,
      "ലക്ഷണ": 8797,
      "റഷ്യ": 8798,
      "##വത്": 8799,
      "##72": 8800,
      "പഞ്ചായത്ത്": 8801,
      "സന്ത": 8802,
      "##ൻപ": 8803,
      "##ബോധ": 8804,
      "##പ്പെടുത്തുന്ന": 8805,
      "ഗ്രഹ": 8806,
      "എല്ലാം": 8807,
      "അരങ്ങ": 8808,
      "##ിക്കാന്‍": 8809,
      "ആറു": 8810,
      "അന്തരീക്ഷ": 8811,
      "##കമായ": 8812,
      "##ായാമ": 8813,
      "##സംഘ": 8814,
      "##‌സ്": 8815,
      "##ത്തിനുശേഷം": 8816,
      "പശ്ചാത്ത": 8817,
      "കണ്ണൂർ": 8818,
      "സുൽത്ത": 8819,
      "മാതാപിത": 8820,
      "തടയ": 8821,
      "ഓഫീസ": 8822,
      "##ാംശ": 8823,
      "2006": 8824,
      "മുൻപ": 8825,
      "മണ്ഡല": 8826,
      "##ട്ടുള്ളത്": 8827,
      "##വ്യവസ്ഥ": 8828,
      "ഏതാനും": 8829,
      "##ത്തോട്": 8830,
      "ആരംഭിച്ച": 8831,
      "വച്ച": 8832,
      "##വിക": 8833,
      "##ക്കാരുടെ": 8834,
      "വിവരങ്ങൾ": 8835,
      "ആവി": 8836,
      "##ഭവം": 8837,
      "കൊടുക്ക": 8838,
      "ഗവർ": 8839,
      "##താവ്": 8840,
      "പൊതുവേ": 8841,
      "ഇംഗ്ലണ്ട": 8842,
      "ഉദ്ദേശ": 8843,
      "ജോർജ്": 8844,
      "സാംസ്കാരിക": 8845,
      "പഴക്ക": 8846,
      "##േൺ": 8847,
      "##ധാര": 8848,
      "സെക്ക": 8849,
      "##വർഗ്ഗ": 8850,
      "##ിയുടെയും": 8851,
      "കറ": 8852,
      "##രാഷ്ട്ര": 8853,
      "സംഖ്യ": 8854,
      "##ിക്കപ്പെടുന്ന": 8855,
      "##ൂര്‍": 8856,
      "ആന്റ്": 8857,
      "ഐതിഹ": 8858,
      "പരീക്ഷ": 8859,
      "പല്ല": 8860,
      "##രുത്": 8861,
      "കാർഷിക": 8862,
      "കടൽ": 8863,
      "നല്ക": 8864,
      "തണു": 8865,
      "മാസം": 8866,
      "ധന": 8867,
      "നയ": 8868,
      "ഫാ": 8869,
      "വനിത": 8870,
      "പോകുന്ന": 8871,
      "##ിക്കി": 8872,
      "മുഖ്യമന്ത്രി": 8873,
      "വള്ള": 8874,
      "##ത്തിന്‌": 8875,
      "കൂടുതല്‍": 8876,
      "##കുടുംബ": 8877,
      "ആൺ": 8878,
      "ഊർജ്ജ": 8879,
      "ജൈവ": 8880,
      "തിരുവ": 8881,
      "കുടുംബത്തിൽ": 8882,
      "വ്യാപാര": 8883,
      "##നാശ": 8884,
      "##ബിയ": 8885,
      "##ിവാസ": 8886,
      "അക്കാലത്ത്": 8887,
      "എത്തി": 8888,
      "കത്തോ": 8889,
      "##ബറിൽ": 8890,
      "ഇവിടുത്തെ": 8891,
      "ഓപ്പറ": 8892,
      "നിർബന്ധ": 8893,
      "##കനും": 8894,
      "##റ്റ്സ്": 8895,
      "ഗുഹ": 8896,
      "കോളേജിൽ": 8897,
      "##ത്തീർ": 8898,
      "ഭൗതിക": 8899,
      "ഇന്നും": 8900,
      "എത്ര": 8901,
      "ചാല": 8902,
      "##ദഗ്ദ്ധ": 8903,
      "തുടർച്ച": 8904,
      "എത്തിച്ച": 8905,
      "##യിരുന്ന": 8906,
      "പരിശോധന": 8907,
      "തീവ്ര": 8908,
      "ക്രിക്കറ്റ്": 8909,
      "##പ്പള്ളി": 8910,
      "നമ്പൂ": 8911,
      "റെയിൽവേ": 8912,
      "##വരാണ്": 8913,
      "ക്രൈ": 8914,
      "##ചീന": 8915,
      "##ികൊ": 8916,
      "തുറമുഖ": 8917,
      "ശാഖ": 8918,
      "##ചെയ്": 8919,
      "ഇത്തര": 8920,
      "##ത്തേയും": 8921,
      "##ിക്കാറുണ്ട്": 8922,
      "സമ്മേള": 8923,
      "പാരമ്പര്യ": 8924,
      "മില്ല": 8925,
      "ശ്വാസ": 8926,
      "വളരെയധികം": 8927,
      "ആഴ": 8928,
      "##ാപ്ര": 8929,
      "##രാജ്യ": 8930,
      "കോടതി": 8931,
      "ചീ": 8932,
      "##പ്പോലെ": 8933,
      "എന്നിവയെ": 8934,
      "സംഘടിപ്പ": 8935,
      "പക": 8936,
      "##ഡിൽ": 8937,
      "ഫിലിം": 8938,
      "അറ്റ": 8939,
      "##പഠ": 8940,
      "തുടക്കം": 8941,
      "ആചാര": 8942,
      "കൊടുത്ത": 8943,
      "49": 8944,
      "ക്രിസ്ത്യ": 8945,
      "##സ്ഥാപ": 8946,
      "പണി": 8947,
      "##ീകൃത": 8948,
      "##ങ്ങളിലാണ്": 8949,
      "നാരായണ": 8950,
      "തീയ": 8951,
      "മാര": 8952,
      "##മാക്കിയ": 8953,
      "നടന്നു": 8954,
      "##ഡിന്റെ": 8955,
      "സുന്ദ": 8956,
      "ഒളി": 8957,
      "അവാർഡ": 8958,
      "തെളിയി": 8959,
      "പൊട്ട": 8960,
      "അനുസരിച്ച്": 8961,
      "##ുക്ക": 8962,
      "##വായി": 8963,
      "##ർക്കി": 8964,
      "സംശ": 8965,
      "മാനസിക": 8966,
      "##ൂസ്": 8967,
      "##മാറ": 8968,
      "മൂന്നാം": 8969,
      "യഹൂദ": 8970,
      "തിള": 8971,
      "അന്തരിച്ചു": 8972,
      "##ക്കളും": 8973,
      "കുറയ്ക്ക": 8974,
      "കാമ": 8975,
      "##്വര": 8976,
      "##ൈസ": 8977,
      "##വഴ": 8978,
      "ഇരുപ": 8979,
      "കമ്മീഷ": 8980,
      "##ചാ": 8981,
      "##പ്പെട്ടിരുന്ന": 8982,
      "2007": 8983,
      "കർഷ": 8984,
      "എല്ലാവ": 8985,
      "ബ്രാഹ്മ": 8986,
      "കൌ": 8987,
      "ഉണ്ടായ": 8988,
      "##ൾഡ്": 8989,
      "ജർമ": 8990,
      "വിതരണം": 8991,
      "ഭർത്ത": 8992,
      "##െയായിരുന്നു": 8993,
      "വിഭാഗം": 8994,
      "ഇംഗ്ലീഷ": 8995,
      "##ാള്‍": 8996,
      "സൗകര്യ": 8997,
      "ഗവേഷ": 8998,
      "##കോവ": 8999,
      "##45": 9000,
      "ഇവയിൽ": 9001,
      "##പര്യ": 9002,
      "വാണിജ്യ": 9003,
      "അന്നത്തെ": 9004,
      "##യിക്കുന്ന": 9005,
      "ഖു": 9006,
      "ജാതി": 9007,
      "വിളിക്കുന്നു": 9008,
      "വിപ": 9009,
      "##്മി": 9010,
      "##കാര്യം": 9011,
      "മോഡ": 9012,
      "##ണമെന്ന്": 9013,
      "മാധ്യ": 9014,
      "അബ്ദു": 9015,
      "പൂർണ": 9016,
      "സീസ": 9017,
      "##വിന്റെ": 9018,
      "##പടി": 9019,
      "ദ്വീപ്": 9020,
      "അയാൾ": 9021,
      "ഭര": 9022,
      "സാൻ": 9023,
      "##യൻ": 9024,
      "ബന്ധം": 9025,
      "പ്രാധാന്യം": 9026,
      "##ൃഹ": 9027,
      "പരമാ": 9028,
      "എന്നാല്‍": 9029,
      "##ാട്ടം": 9030,
      "അന്ന്": 9031,
      "കത്തോലിക്ക": 9032,
      "##യാത്ര": 9033,
      "അണക്ക": 9034,
      "സമ്പ്ര": 9035,
      "കാരണമാക": 9036,
      "##ുകൂടിയ": 9037,
      "നായക": 9038,
      "ടൂ": 9039,
      "ദൃശ്യ": 9040,
      "ബിസി": 9041,
      "##ണ്ഡലം": 9042,
      "##െല്ലാം": 9043,
      "അലക്സ": 9044,
      "ആയിരുന്ന": 9045,
      "മദ": 9046,
      "##മനുസരിച്ച്": 9047,
      "ആം": 9048,
      "##പ്പുകൾ": 9049,
      "##പേര": 9050,
      "ഉപയോഗിച്ചു": 9051,
      "നിലനിന്ന": 9052,
      "##തുട": 9053,
      "##ഫെ": 9054,
      "നിലനി": 9055,
      "സാന്നി": 9056,
      "രസ": 9057,
      "##ല്ലൂർ": 9058,
      "വാര": 9059,
      "##ശേഖ": 9060,
      "പ്രാഥമിക": 9061,
      "ഭാഷയിൽ": 9062,
      "##ർത്തുന്ന": 9063,
      "സംരക്ഷണ": 9064,
      "##യുമാണ്": 9065,
      "കെട്ട": 9066,
      "താരതമ്യ": 9067,
      "##ാവോ": 9068,
      "##ാന്തി": 9069,
      "##ച്ചുഗ": 9070,
      "##വഴി": 9071,
      "സുഹൃ": 9072,
      "##ിക്കുന്നത": 9073,
      "ഭരണം": 9074,
      "##ഴുന്ന": 9075,
      "##യോജ": 9076,
      "ശക്തമായ": 9077,
      "സോവ": 9078,
      "##മ്പു": 9079,
      "##സ്സിൽ": 9080,
      "##ലിൻ": 9081,
      "ചൈനീസ്": 9082,
      "നോവല": 9083,
      "ആൻഡ": 9084,
      "##പരമായി": 9085,
      "രാത്രി": 9086,
      "പുഷ്പ": 9087,
      "ഭാവ": 9088,
      "പുഴ": 9089,
      "യുദ്ധത്തിൽ": 9090,
      "##ാലയം": 9091,
      "##സ്‌ല": 9092,
      "അടിമ": 9093,
      "കഴിയുന്ന": 9094,
      "വിഭജ": 9095,
      "കോൺഗ്രസ്": 9096,
      "##62": 9097,
      "##ാമിക": 9098,
      "പ്രാചീന": 9099,
      "ലള": 9100,
      "കർണ്ണ": 9101,
      "സവിശേഷത": 9102,
      "നീണ്ട": 9103,
      "##നേഹ": 9104,
      "മദ്ര": 9105,
      "പ്രോട്ട": 9106,
      "ഹോട്ട": 9107,
      "##ിന്യ": 9108,
      "##ാദി": 9109,
      "അഫ്ഗ": 9110,
      "##യോർ": 9111,
      "##ങ്ങളിലൂടെ": 9112,
      "കൗൺ": 9113,
      "യുടെ": 9114,
      "##മൊ": 9115,
      "യുഎസ്": 9116,
      "ഖാൻ": 9117,
      "വൈദ്യുത": 9118,
      "കർണ": 9119,
      "പുറത്തു": 9120,
      "കരുതുന്നു": 9121,
      "തറ": 9122,
      "മദ്യ": 9123,
      "തോമസ്": 9124,
      "ഗെയി": 9125,
      "##കൊണ്ട്": 9126,
      "പരിപാട": 9127,
      "##ഗ്രന്ഥ": 9128,
      "ചരിത്രം": 9129,
      "ഭി": 9130,
      "##ച്ചെ": 9131,
      "##ങ്ങളുള്ള": 9132,
      "##ീണ": 9133,
      "##ബൂ": 9134,
      "അഭിനയിച്ചു": 9135,
      "റിസർ": 9136,
      "വീര": 9137,
      "പ്രസിഡന്റ്": 9138,
      "##ബല": 9139,
      "##ബോൾ": 9140,
      "##സ്കൂ": 9141,
      "##ിക്കുവ": 9142,
      "മുകളിൽ": 9143,
      "റ്": 9144,
      "കൂടെ": 9145,
      "##വർമ്മ": 9146,
      "##ൂരിലെ": 9147,
      "##ഷക": 9148,
      "പ്രദേശത്ത്": 9149,
      "ന്റെ": 9150,
      "എളു": 9151,
      "ചോദ്യ": 9152,
      "പദവി": 9153,
      "ശാര": 9154,
      "##ായ്മ": 9155,
      "ഉന്നത": 9156,
      "റോമൻ": 9157,
      "##താണ": 9158,
      "##റിഞ്ഞ": 9159,
      "വന്യ": 9160,
      "##റിക്": 9161,
      "ഉദ്യ": 9162,
      "##പ്റ്റ": 9163,
      "കോട്ടയം": 9164,
      "വ്യക്തിയ": 9165,
      "റോഡ്": 9166,
      "##ത്ന": 9167,
      "അലങ്ക": 9168,
      "നിർവ്വഹ": 9169,
      "60": 9170,
      "ഭാഗത്ത്": 9171,
      "പുരോഗ": 9172,
      "കണ്ടുപിട": 9173,
      "ഭാരതീയ": 9174,
      "സെൻസസ്": 9175,
      "നല്‍ക": 9176,
      "##ുഡ്": 9177,
      "##ാചാര": 9178,
      "തൃശ്ശൂർ": 9179,
      "രു": 9180,
      "അതായത്": 9181,
      "##ണയ": 9182,
      "##77": 9183,
      "ഉണ്ടാകുന്ന": 9184,
      "ഏതെങ്കിലും": 9185,
      "##ത്തെക്കുറിച്ച്": 9186,
      "##ഴ്സ": 9187,
      "കുതിര": 9188,
      "രാജാവ്": 9189,
      "നീളം": 9190,
      "##ോസിയ": 9191,
      "##്യമായ": 9192,
      "ഫലമായി": 9193,
      "പുനർ": 9194,
      "കാണാൻ": 9195,
      "കലാകാര": 9196,
      "അയാള": 9197,
      "##ലിക": 9198,
      "അടിയ": 9199,
      "നാള": 9200,
      "##ട്ടോ": 9201,
      "##ംഗം": 9202,
      "##സ്ഥല": 9203,
      "തെറ്റ": 9204,
      "റഷ്യൻ": 9205,
      "##ാക്": 9206,
      "##വർത്തനം": 9207,
      "ഹൗ": 9208,
      "ഗാന്ധി": 9209,
      "##ന്ദിര": 9210,
      "##ിരുന്നാലും": 9211,
      "ഗ്രീക്ക്": 9212,
      "ഗൂ": 9213,
      "##ന്നത്": 9214,
      "##റസ്": 9215,
      "##ങ്ങളോ": 9216,
      "ചിത്രത്തിലെ": 9217,
      "പ്രാധാന്യ": 9218,
      "സമർപ്പ": 9219,
      "2017": 9220,
      "##പിള്ള": 9221,
      "കമ്പ്യൂട്ടർ": 9222,
      "ഗുരുവ": 9223,
      "##മയ": 9224,
      "പ്രകട": 9225,
      "##സമയ": 9226,
      "##ഥം": 9227,
      "പുസ്തകം": 9228,
      "##മാണെന്ന്": 9229,
      "##ുട്": 9230,
      "നീണ്ടു": 9231,
      "##ചന്ദ്ര": 9232,
      "എന്നായിരുന്നു": 9233,
      "2001": 9234,
      "ഓസ്ട്രേലിയ": 9235,
      "നമ്മുടെ": 9236,
      "പാർല": 9237,
      "ആഹാര": 9238,
      "ചടങ്ങ": 9239,
      "##ബൽ": 9240,
      "##ാനിൽ": 9241,
      "മിക്കവ": 9242,
      "രീ": 9243,
      "##സ്‌ട്ര": 9244,
      "##ോണിയ": 9245,
      "കോമ": 9246,
      "പാരി": 9247,
      "##ഡർ": 9248,
      "ചെയ്തിര": 9249,
      "184": 9250,
      "മുകള": 9251,
      "##ഘാത": 9252,
      "##ചക": 9253,
      "##ചരിത്ര": 9254,
      "നോവൽ": 9255,
      "തുടക്കത്തിൽ": 9256,
      "തായ": 9257,
      "നിക": 9258,
      "##ബർട്ട്": 9259,
      "##പ്പറ്റ": 9260,
      "##ാന്റ": 9261,
      "വികസന": 9262,
      "##ളിൽ": 9263,
      "##യുദ്ധ": 9264,
      "##35": 9265,
      "##ാകുന്നു": 9266,
      "സ്ഥാപിച്ച": 9267,
      "എലി": 9268,
      "പ്രദേശങ്ങളിൽ": 9269,
      "സ്ഥിതിചെയ്യുന്നു": 9270,
      "തെക്കേ": 9271,
      "ആകാശ": 9272,
      "വ്യായാമ": 9273,
      "പട്ടാള": 9274,
      "പേർഷ": 9275,
      "##ിപ്പു": 9276,
      "മാം": 9277,
      "യൂറോപ്പ": 9278,
      "ലക്ഷ്യം": 9279,
      "പടിഞ്ഞാറ്": 9280,
      "നിൽക്കുന്ന": 9281,
      "കിടക്കുന്ന": 9282,
      "ഭരണഘടന": 9283,
      "ആലപ്പുഴ": 9284,
      "നിർമ്മാണം": 9285,
      "##88": 9286,
      "പറയപ്പെടുന്നു": 9287,
      "മേഖലയിൽ": 9288,
      "എറണാകുളം": 9289,
      "പത്മ": 9290,
      "മർ": 9291,
      "##എഫ്": 9292,
      "പ്രദേശത്തെ": 9293,
      "കഴിഞ്ഞു": 9294,
      "സ്വദേശ": 9295,
      "കുറച്ചു": 9296,
      "കാരണമായി": 9297,
      "ആരോപ": 9298,
      "##നിർമ്": 9299,
      "മനസ്സിലാക്ക": 9300,
      "##യിൻ": 9301,
      "കാലയ": 9302,
      "ഡോള": 9303,
      "##ിലോ": 9304,
      "##്പന": 9305,
      "##വിട്ടു": 9306,
      "ടെക്": 9307,
      "അറബി": 9308,
      "ന്യൂയോർ": 9309,
      "താത്": 9310,
      "അമിത": 9311,
      "സൊസൈ": 9312,
      "ജോസഫ്": 9313,
      "36": 9314,
      "കിഴക്ക്": 9315,
      "കച്ച": 9316,
      "പിര": 9317,
      "പകു": 9318,
      "ഇടയിൽ": 9319,
      "##ാകാശ": 9320,
      "കൈകാര്യം": 9321,
      "ശരാശരി": 9322,
      "എത്തിയ": 9323,
      "##തയ": 9324,
      "##ായിരിക്ക": 9325,
      "ലഭിച്ചത്": 9326,
      "##ൊന്ന്": 9327,
      "##വിശ്വ": 9328,
      "മൈക്ര": 9329,
      "പോർച്ചുഗ": 9330,
      "ചര": 9331,
      "##22": 9332,
      "##പുല": 9333,
      "##പ്പിൾ": 9334,
      "തൈ": 9335,
      "##ാശയ": 9336,
      "##ുണ്ടായ": 9337,
      "ബാങ്ക": 9338,
      "ഇന്തോ": 9339,
      "മുള": 9340,
      "തുല്യ": 9341,
      "##േബ": 9342,
      "##ിനോട്": 9343,
      "അസുഖ": 9344,
      "##മൂല": 9345,
      "##ായുദ്ധ": 9346,
      "ആണ്‌": 9347,
      "##സാധ": 9348,
      "വന്നത്": 9349,
      "##പടിഞ്ഞാറ": 9350,
      "ഒടുവിൽ": 9351,
      "മണി": 9352,
      "സന്ധ": 9353,
      "##ചനം": 9354,
      "##ക്കളെ": 9355,
      "##ൗൺ": 9356,
      "ചാർ": 9357,
      "ഉണ്ടാവ": 9358,
      "##തന": 9359,
      "##വർഷം": 9360,
      "ഭീഷ": 9361,
      "അതുപോലെ": 9362,
      "നദിയുടെ": 9363,
      "ചെന്നൈ": 9364,
      "അശ": 9365,
      "വിശ്വാസം": 9366,
      "തൊഴിലാള": 9367,
      "കുട്ടികളുടെ": 9368,
      "നേത": 9369,
      "പ്രത്യേകം": 9370,
      "##ഖ്യാന": 9371,
      "അമേരിക്കയിലെ": 9372,
      "ലക്ഷം": 9373,
      "കൊള്ള": 9374,
      "ഉരു": 9375,
      "##ക്കിൽ": 9376,
      "നിറം": 9377,
      "31": 9378,
      "എന്നിരുന്നാലും": 9379,
      "വിഷ്ണ": 9380,
      "##ക്കാലം": 9381,
      "ഉൾപ്പെടെ": 9382,
      "സ്ഥലത്ത്": 9383,
      "ഇവിടത്തെ": 9384,
      "##ക്കുമ്പോൾ": 9385,
      "##ുൾ": 9386,
      "സ്ഥാപിച്ചു": 9387,
      "വാഴ": 9388,
      "ക്ലാസ്": 9389,
      "നടപ്പില": 9390,
      "യന്ത്ര": 9391,
      "##മര": 9392,
      "##ിലധികം": 9393,
      "പ്രവർത്തിക്കുന്നു": 9394,
      "വർണ്ണ": 9395,
      "ഇപ്പോഴും": 9396,
      "ഗർഭ": 9397,
      "##മാക്കുന്ന": 9398,
      "നിർത്ത": 9399,
      "കുട്ടി": 9400,
      "മഹാര": 9401,
      "ബോധ": 9402,
      "##ങ്ങളിലായി": 9403,
      "വിവക്ഷ": 9404,
      "##നങ്ങളും": 9405,
      "##റ്റ്‌വ": 9406,
      "##മാത്ര": 9407,
      "പശ്ചാത്തല": 9408,
      "##പോല": 9409,
      "##ാഫി": 9410,
      "പന്ത്ര": 9411,
      "പദം": 9412,
      "നൽകുന്നു": 9413,
      "സാക്ഷ": 9414,
      "സൌ": 9415,
      "കരുതി": 9416,
      "ഫോട്ട": 9417,
      "പാലക്കാട്": 9418,
      "എന്റെ": 9419,
      "##ഷ്ക": 9420,
      "മുത്ത": 9421,
      "കാത": 9422,
      "##ാഫ്": 9423,
      "ചെയ്യുക": 9424,
      "ഞാൻ": 9425,
      "##വീ": 9426,
      "##ല്ല്": 9427,
      "വേണം": 9428,
      "സുഗ": 9429,
      "അളവ്": 9430,
      "##ങ്ങൾക്ക": 9431,
      "##കരുടെ": 9432,
      "പരിഗണ": 9433,
      "പന": 9434,
      "##ലഭ": 9435,
      "##താണ്‌": 9436,
      "##ാച": 9437,
      "##ുകിഴക്ക": 9438,
      "മലനിര": 9439,
      "##ടുന്നു": 9440,
      "പാശ്": 9441,
      "രാജവംശ": 9442,
      "##ിരിക്കുന്നത്": 9443,
      "##0000": 9444,
      "##മേണ": 9445,
      "##ിക്കുന്നതിന്": 9446,
      "##ാന്തിക": 9447,
      "##േറ്റർ": 9448,
      "സംഘം": 9449,
      "##ന്ത്": 9450,
      "യൂണി": 9451,
      "പരിശോധ": 9452,
      "തള": 9453,
      "ശത്": 9454,
      "പിറ": 9455,
      "##ക്കൂട്ട": 9456,
      "##ടുത്തുള്ള": 9457,
      "വടക്കേ": 9458,
      "എട്ട": 9459,
      "##ലർ": 9460,
      "##ജിയ": 9461,
      "ക്ഷേത്രത്തിൽ": 9462,
      "##ൻ‌": 9463,
      "##്യന്തര": 9464,
      "സമ്മാന": 9465,
      "##ോട്ടു": 9466,
      "സോഷ്യ": 9467,
      "##ൂണ": 9468,
      "റേഡിയോ": 9469,
      "##മാർഗ്ഗ": 9470,
      "അടങ്ങിയി": 9471,
      "##സാഹിത്യ": 9472,
      "ഭക്ത": 9473,
      "തുടർന്ന": 9474,
      "##നോൻ": 9475,
      "ചാ": 9476,
      "##ര്യം": 9477,
      "##95": 9478,
      "2004": 9479,
      "അളവ": 9480,
      "സിനി": 9481,
      "സോവിയറ്റ്": 9482,
      "പ്രാപ": 9483,
      "##ാറില്ല": 9484,
      "മനോഹ": 9485,
      "2018": 9486,
      "സംസ്ഥാനത്തെ": 9487,
      "പ്രമേഹ": 9488,
      "##ചാത്യ": 9489,
      "സം‌": 9490,
      "സുഖ": 9491,
      "##ിക്കുകയാണ്": 9492,
      "യെ": 9493,
      "##ിപ്പിക്കുന്നത്": 9494,
      "പോളി": 9495,
      "അപ്ര": 9496,
      "ഹാർ": 9497,
      "##ംഖ": 9498,
      "ചെയ്യുകയും": 9499,
      "##സമയം": 9500,
      "ഇലക്ട്ര": 9501,
      "##നൽ": 9502,
      "കിമീ": 9503,
      "മുസ്ലിം": 9504,
      "ത്രി": 9505,
      "##ിച്ചുകൊണ്ട": 9506,
      "വെളി": 9507,
      "പരിഹ": 9508,
      "സ്വീ": 9509,
      "2005": 9510,
      "സമുദായ": 9511,
      "ചേർത്ത": 9512,
      "##ഖണ്ഡ": 9513,
      "##ിപ്പിക്കാൻ": 9514,
      "പരിണ": 9515,
      "ഗവൺ": 9516,
      "##ോടുള്ള": 9517,
      "കുരു": 9518,
      "##ൗണ്ട": 9519,
      "##ന്മാരെ": 9520,
      "ഷോ": 9521,
      "ചിത്രകാര": 9522,
      "##ഗതി": 9523,
      "##34": 9524,
      "വില്യം": 9525,
      "ഓർ": 9526,
      "##സിൻ": 9527,
      "പ്രഖ്യാപിച്ചു": 9528,
      "എഫ്": 9529,
      "ചരിത്രകാര": 9530,
      "മാസിക": 9531,
      "##മാരും": 9532,
      "##ഴ്സ്": 9533,
      "രണ്ടാമ": 9534,
      "ശക്തിയ": 9535,
      "##റ്റുകൾ": 9536,
      "ഉപരി": 9537,
      "തെലു": 9538,
      "വില്ലേജ": 9539,
      "##ീനം": 9540,
      "കിടക്ക": 9541,
      "ഇപ്പോഴ": 9542,
      "##76": 9543,
      "##ിച്ചാൽ": 9544,
      "പാശ്ചാത്യ": 9545,
      "##േറ്റം": 9546,
      "##ിന്റേയും": 9547,
      "ഇസ്ര": 9548,
      "##തുകൊണ്ട്": 9549,
      "##എന്ന": 9550,
      "രാജ്യങ്ങളിൽ": 9551,
      "##ൂടെയും": 9552,
      "##യവ": 9553,
      "ആഭ്യന്തര": 9554,
      "മുസ്ല": 9555,
      "എടുത്ത": 9556,
      "കുടുംബത്തിലെ": 9557,
      "##ിയുമായി": 9558,
      "പ്രശസ്തമായ": 9559,
      "അക്ഷ": 9560,
      "നന്നായി": 9561,
      "എക്സ്പ": 9562,
      "##താര": 9563,
      "##സീ": 9564,
      "മക്ക": 9565,
      "##റ്റൽ": 9566,
      "വരും": 9567,
      "വാസ്തു": 9568,
      "ചൂട": 9569,
      "പാണ്ഡ": 9570,
      "##ന്നൂർ": 9571,
      "ചെയ്യപ്പെട്ട": 9572,
      "നഗരത്തിന്റെ": 9573,
      "##യിലേക്കു": 9574,
      "എന്നിവരുടെ": 9575,
      "സ്വാഭ": 9576,
      "##മുണ്ടായിരുന്നു": 9577,
      "##ാക്രമ": 9578,
      "കിലോമീറ്റ": 9579,
      "##മാകുന്ന": 9580,
      "സദ": 9581,
      "##കങ്ങൾ": 9582,
      "ഹു": 9583,
      "##മുദ്ര": 9584,
      "അന്ത്യ": 9585,
      "##ാഡ്": 9586,
      "##ണ്ഠ": 9587,
      "ഭയ": 9588,
      "കൊഴു": 9589,
      "പർവ്വത": 9590,
      "വസ്ത്ര": 9591,
      "കാട": 9592,
      "മുനി": 9593,
      "മാധ്യമ": 9594,
      "സൂപ്പർ": 9595,
      "ഭരണാധികാര": 9596,
      "പങ്കെടുത്ത": 9597,
      "ഷാ": 9598,
      "##ത്തിൻ": 9599,
      "റിയ": 9600,
      "##ഭാഗവും": 9601,
      "പ്രതിഭ": 9602,
      "##സമൂഹ": 9603,
      "നാമം": 9604,
      "ദേവി": 9605,
      "##മൻ": 9606,
      "കളിക്കാര": 9607,
      "##ത്ത്‌": 9608,
      "ആരാധന": 9609,
      "##ിക്കൊണ്ട": 9610,
      "ഉത്സവ": 9611,
      "##ജല": 9612,
      "##മനു": 9613,
      "75": 9614,
      "##ശില": 9615,
      "പിടി": 9616,
      "പോഷക": 9617,
      "ബ്രഹ്മ": 9618,
      "അവസാനം": 9619,
      "##ുപയോഗ": 9620,
      "രഹ": 9621,
      "പിന്നെ": 9622,
      "സിപി": 9623,
      "ആയിര": 9624,
      "ചൂണ്ട": 9625,
      "ആയുധ": 9626,
      "തിരുവിതാംകൂർ": 9627,
      "##തൃക": 9628,
      "ഗത": 9629,
      "##കൂട": 9630,
      "മനോ": 9631,
      "തട്ട": 9632,
      "ഭാഗങ്ങൾ": 9633,
      "ദശല": 9634,
      "##നിക്ക്": 9635,
      "രാജ്യം": 9636,
      "സര": 9637,
      "##േഡ്": 9638,
      "ബോംബ": 9639,
      "##പ്പാപ്പ": 9640,
      "##ത്തിന്റേയും": 9641,
      "പരിചയ": 9642,
      "വെളുത്ത": 9643,
      "##സാമ": 9644,
      "പ്രിയ": 9645,
      "ഫുട്": 9646,
      "വരുമാന": 9647,
      "##രചന": 9648,
      "വിട": 9649,
      "##ില്ലാത്ത": 9650,
      "കുട്ടികള": 9651,
      "വിലയി": 9652,
      "##്പ്പ": 9653,
      "##ഷ്കര": 9654,
      "പരസ്പരം": 9655,
      "##തുപോലെ": 9656,
      "ഉണ": 9657,
      "##ാഞ്ച": 9658,
      "##റാണ്": 9659,
      "##ശിഷ്ട": 9660,
      "തിരുവനന്തപുര": 9661,
      "റില": 9662,
      "##ണ്ടർ": 9663,
      "##റ്റിന്റെ": 9664,
      "##ോഗ്": 9665,
      "##ാക്കുകയും": 9666,
      "മെച്ച": 9667,
      "##പത്ര": 9668,
      "##പ്പൊ": 9669,
      "നിരോധ": 9670,
      "##ന്റെയും": 9671,
      "മഹാരാജ": 9672,
      "ആഴ്ച": 9673,
      "ജയില": 9674,
      "രാജാക്ക": 9675,
      "ജെയി": 9676,
      "സിറ്റി": 9677,
      "സോഫ്റ്റ്‌വ": 9678,
      "##ര്‍ച്ച": 9679,
      "നടത്തുന്നു": 9680,
      "ധർമ്മ": 9681,
      "##ത്തുകൾ": 9682,
      "പാഠ": 9683,
      "നേതൃത്വം": 9684,
      "##കനായ": 9685,
      "ഒന്നും": 9686,
      "ചാമ്പ": 9687,
      "വേര": 9688,
      "##ിനെയും": 9689,
      "സിംഗ": 9690,
      "ശൈലി": 9691,
      "ലൈബ്ര": 9692,
      "സെക്രട്ടറിയ": 9693,
      "ചെയർ": 9694,
      "കാട്ടു": 9695,
      "##ിലായി": 9696,
      "വളരുന്ന": 9697,
      "##ഭാഷണ": 9698,
      "സംയുക്ത": 9699,
      "##െയ്‌": 9700,
      "##ൂൺ": 9701,
      "##ാക്കിയത്": 9702,
      "മാറിയ": 9703,
      "ആൻ": 9704,
      "##ണ്ണി": 9705,
      "രാജ്യത്തെ": 9706,
      "ഇവിടെയ": 9707,
      "ഉയരമുള്ള": 9708,
      "തകർ": 9709,
      "ഏഴു": 9710,
      "##നിയമ": 9711,
      "കാവ്യ": 9712,
      "##ിലായിരുന്നു": 9713,
      "സമാധാന": 9714,
      "##ടുക്കുന്ന": 9715,
      "ജാവ": 9716,
      "##ിച്ചെ": 9717,
      "നിക്ഷേപ": 9718,
      "നഗരത്തിൽ": 9719,
      "നാവിക": 9720,
      "##കുമാര": 9721,
      "പുരാണ": 9722,
      "ബംഗ്ല": 9723,
      "##മേറിയ": 9724,
      "80": 9725,
      "##ുകൂല": 9726,
      "അഴ": 9727,
      "സിംഹ": 9728,
      "##ങ്ങളിലേക്ക്": 9729,
      "വാങ്ങ": 9730,
      "##സൻ": 9731,
      "##ട്ടർ": 9732,
      "എന്നിവയിൽ": 9733,
      "നൂറ്റാണ്ടിലെ": 9734,
      "##വയ": 9735,
      "##വറ": 9736,
      "ഹൈസ്കൂ": 9737,
      "എതിര": 9738,
      "കോർപ്പറ": 9739,
      "##ുമതി": 9740,
      "##ടയിൽ": 9741,
      "##ിക്കപ്പെട്ടത്": 9742,
      "##ീകരിച്ച്": 9743,
      "ബാർ": 9744,
      "##സംഗ": 9745,
      "കൂടിയാണ്": 9746,
      "ശിഷ്യ": 9747,
      "ഇടു": 9748,
      "##ഫർ": 9749,
      "മൊത്തം": 9750,
      "##ട്ട്‌": 9751,
      "ഗൗ": 9752,
      "##ൃദ്ധ": 9753,
      "സാധ്യ": 9754,
      "##ാതു": 9755,
      "കുട്ടികൾ": 9756,
      "മധുര": 9757,
      "മരണമട": 9758,
      "##ഖിത": 9759,
      "##ാഹി": 9760,
      "##ട്രോ": 9761,
      "പരിശീലനം": 9762,
      "മോഹൻ": 9763,
      "##സ്യം": 9764,
      "##44": 9765,
      "ലോഹ": 9766,
      "നാശ": 9767,
      "ഭാഗമാണ്": 9768,
      "വിസ്തൃ": 9769,
      "##െർ": 9770,
      "##ത്തിര": 9771,
      "രാജ്യത്തിന്റെ": 9772,
      "##ഡുകൾ": 9773,
      "##രായി": 9774,
      "##യാണ്‌": 9775,
      "ശില്പ": 9776,
      "ഐക്യനാടുകളിലെ": 9777,
      "##വരു": 9778,
      "അസോസിയ": 9779,
      "സ്വാധീനം": 9780,
      "##പാട്": 9781,
      "മാധ": 9782,
      "മലപ്പുറം": 9783,
      "പ്രഥ": 9784,
      "##ല്ലോ": 9785,
      "##ില്ലി": 9786,
      "##യോജന": 9787,
      "വെള്ളച്ച": 9788,
      "കർണാടക": 9789,
      "##എച്ച്": 9790,
      "##ദിവ": 9791,
      "##ിവർ": 9792,
      "ഇൻസ്റ്റിറ്റ്യൂട്ട്": 9793,
      "ദേ": 9794,
      "സന്": 9795,
      "ചിലപ്പോൾ": 9796,
      "വയ്ക്ക": 9797,
      "##78": 9798,
      "##സ്വാമി": 9799,
      "വംശജ": 9800,
      "കവി": 9801,
      "##ക്യു": 9802,
      "##ച്ചിട്ടുണ്ട്": 9803,
      "കമ്മ്യൂണിസ്റ്റ്": 9804,
      "##ാവിന്റെ": 9805,
      "സ്ത്രീകൾ": 9806,
      "##കൊള്ള": 9807,
      "ബഹിര": 9808,
      "സങ്കല്പ": 9809,
      "183": 9810,
      "അവയെ": 9811,
      "വാർത്ത": 9812,
      "പ്രകടിപ്പ": 9813,
      "താൽ": 9814,
      "##ത്തൂർ": 9815,
      "താലൂക്കിൽ": 9816,
      "##രീ": 9817,
      "##ത്മാ": 9818,
      "ഫെഡ": 9819,
      "ലഘ": 9820,
      "##ാനന്ദ": 9821,
      "##മ്പ്ര": 9822,
      "##ലേ": 9823,
      "##ാനിഷ്": 9824,
      "പ്രവര്‍ത്ത": 9825,
      "അത്ര": 9826,
      "പന്ത": 9827,
      "##ൊന്നു": 9828,
      "വിറ്റ": 9829,
      "##ത്സാഹ": 9830,
      "അഭിനയി": 9831,
      "ഒട്ടേറെ": 9832,
      "വെളിച്ച": 9833,
      "##പോയി": 9834,
      "ഏതു": 9835,
      "നാണ": 9836,
      "##തയെ": 9837,
      "##ാലിയൻ": 9838,
      "##സഞ്ചാര": 9839,
      "##ണ്ടായ": 9840,
      "##ങ്ങളേയും": 9841,
      "ഗി": 9842,
      "##ക്കിന്റെ": 9843,
      "##ന്‍റെ": 9844,
      "##െൽ": 9845,
      "വായന": 9846,
      "##ണ്ണ്": 9847,
      "മാറ്റം": 9848,
      "##മുണ്ടായി": 9849,
      "സേവനം": 9850,
      "അവയിൽ": 9851,
      "യുണ": 9852,
      "ചോദ": 9853,
      "##മാക്കുന്നു": 9854,
      "ആരംഭിച്ചത്": 9855,
      "സാധിക്കും": 9856,
      "തീരുമാനിച്ചു": 9857,
      "ചിറക": 9858,
      "വിഗ്രഹ": 9859,
      "സംബന്ധിച്ച": 9860,
      "നമു": 9861,
      "വരുത്ത": 9862,
      "എളുപ്പ": 9863,
      "കടുത്ത": 9864,
      "##ർഘ": 9865,
      "##േറ": 9866,
      "##ക്കറ": 9867,
      "ചേർത്ത്": 9868,
      "മുഗ": 9869,
      "##ിച്ചുകൊണ്ട്": 9870,
      "ലഭ്യമാണ്": 9871,
      "##റ്ററ": 9872,
      "ബഹിരാകാശ": 9873,
      "മകൻ": 9874,
      "##തയിൽ": 9875,
      "##ിക്കാത്ത": 9876,
      "തിരുന": 9877,
      "പഞ്ചാബ്": 9878,
      "##ിപ്പോ": 9879,
      "ജൂത": 9880,
      "ഇല്ലാത": 9881,
      "##ാധിപത്യ": 9882,
      "ദശ": 9883,
      "സന്യ": 9884,
      "വലു": 9885,
      "മറു": 9886,
      "##ക്കല": 9887,
      "##ക്കുറിച്ചും": 9888,
      "ചെറുപ്പ": 9889,
      "ചാര": 9890,
      "##ങ്ങളുണ്ട": 9891,
      "മുതി": 9892,
      "##നിതാ": 9893,
      "മിക്കവാറും": 9894,
      "ലു": 9895,
      "##ാജി": 9896,
      "##ഡിയം": 9897,
      "അതുകൊണ്ട്": 9898,
      "കുടുംബം": 9899,
      "പൂർത്ത": 9900,
      "പരമ": 9901,
      "സ്റ്റു": 9902,
      "ജില്ലാ": 9903,
      "##ാറിൽ": 9904,
      "ഹൃ": 9905,
      "രക്തം": 9906,
      "അലക്സാണ്ട": 9907,
      "##നുമായ": 9908,
      "സൈന്യം": 9909,
      "##നീസ്": 9910,
      "##ിക്കാനായി": 9911,
      "കാണപ്പെടുന്നത്": 9912,
      "##ാണുള്ളത്": 9913,
      "##ികളിലും": 9914,
      "അംഗീ": 9915,
      "തന്ത്ര": 9916,
      "##സംവിധാന": 9917,
      "പ്രദേശങ്ങൾ": 9918,
      "പ്രത്യേകിച്ച്": 9919,
      "കാർബ": 9920,
      "##ിലേക്കും": 9921,
      "##ഞ്ചു": 9922,
      "##ാൾസ്": 9923,
      "##ച്ചിൽ": 9924,
      "##ോറും": 9925,
      "താഴ്വര": 9926,
      "അരു": 9927,
      "കായിക": 9928,
      "പരിസ്ഥിതി": 9929,
      "##സേ": 9930,
      "##ത്തറ": 9931,
      "##ാനാണ്": 9932,
      "##ാനാവ": 9933,
      "180": 9934,
      "##ൊരാള": 9935,
      "ഒന്നു": 9936,
      "##സ്ട": 9937,
      "##രിക്കാൻ": 9938,
      "വളർത്ത": 9939,
      "ജർമ്മൻ": 9940,
      "ഇനം": 9941,
      "പാത്ര": 9942,
      "##്ലി": 9943,
      "ബാങ്ക്": 9944,
      "##ളവിൽ": 9945,
      "ഈസ്റ്റ്": 9946,
      "പ്രദ": 9947,
      "##ാലം": 9948,
      "മാർപ്പാപ്പ": 9949,
      "ഇതിലെ": 9950,
      "##വൃ": 9951,
      "##ടിയിൽ": 9952,
      "നടത്തുന്നത്": 9953,
      "ജ്ഞ": 9954,
      "മലബാർ": 9955,
      "##േന്ത്യ": 9956,
      "##ങ്കിൽ": 9957,
      "##മെല്ലാം": 9958,
      "##ിച്ചില്ല": 9959,
      "അറേബ": 9960,
      "##ാറിന്റെ": 9961,
      "150": 9962,
      "സ്മാര": 9963,
      "ചുവന്ന": 9964,
      "ജനു": 9965,
      "##വൃത്ത": 9966,
      "ഡേവി": 9967,
      "വിട്ടു": 9968,
      "ലൂയി": 9969,
      "ചാന": 9970,
      "1980": 9971,
      "ജീവിച്ചിരുന്ന": 9972,
      "വിശദീകര": 9973,
      "പണം": 9974,
      "നിരീക്ഷണ": 9975,
      "ബാബ": 9976,
      "മിശ്ര": 9977,
      "വേർതിര": 9978,
      "വെട": 9979,
      "##ർവത": 9980,
      "##ണോ": 9981,
      "##ിക്കുന്നതും": 9982,
      "മേരി": 9983,
      "##ബന്ധം": 9984,
      "ക്ഷേത്രത്തിലെ": 9985,
      "മെഡിക്കൽ": 9986,
      "ഡൽഹി": 9987,
      "1990": 9988,
      "തമിഴ": 9989,
      "##പ്പെടുത്തിയിട്ടുണ്ട്": 9990,
      "വൃക്ഷ": 9991,
      "നേപ്പ": 9992,
      "ശാരീര": 9993,
      "നീര": 9994,
      "##ുമുണ്ട്": 9995,
      "നഗരത്തിലെ": 9996,
      "##ശ്വര": 9997,
      "അസം": 9998,
      "വനിതാ": 9999,
      "സ്മ": 10000,
      "##പിടി": 10001,
      "സ്കൂളിൽ": 10002,
      "##ുവിനെ": 10003,
      "വെച്ച": 10004,
      "വേൾഡ്": 10005,
      "പുറം": 10006,
      "പ്രസിദ്ധമായ": 10007,
      "മരിച്ചു": 10008,
      "ഈജിപ്": 10009,
      "##ുവെ": 10010,
      "##ാസ്‌": 10011,
      "##ാദം": 10012,
      "വളർന്ന": 10013,
      "എന്നിവരാണ്": 10014,
      "ഉൽ": 10015,
      "തക": 10016,
      "##ോവ്": 10017,
      "##ിപ്പിക്കുകയും": 10018,
      "##ാസ്റ്റ": 10019,
      "ബ്രാഹ്മണ": 10020,
      "##ിച്ചപ്പോൾ": 10021,
      "##മായിരിക്കും": 10022,
      "##ബ്രഹ്മ": 10023,
      "ബൊ": 10024,
      "##ക്റ്റ്": 10025,
      "##ങ്ങളുടേയും": 10026,
      "##േർഡ്": 10027,
      "##ക്കെതിര": 10028,
      "വക": 10029,
      "##നാര": 10030,
      "നും": 10031,
      "പത്തു": 10032,
      "##ഗ്രി": 10033,
      "അറബ": 10034,
      "##ാനന്തര": 10035,
      "കടന്ന": 10036,
      "##ക്കാലത്തെ": 10037,
      "ഗുജ": 10038,
      "##മില്ലാതെ": 10039,
      "മുട": 10040,
      "##യൂ": 10041,
      "##ന്തരം": 10042,
      "ഉടമസ്ഥ": 10043,
      "##ചെ": 10044,
      "മുദ്ര": 10045,
      "നടപട": 10046,
      "##റ്റിംഗ്": 10047,
      "ചെട": 10048,
      "##പുത്ര": 10049,
      "ശവ": 10050,
      "##ലിന": 10051,
      "##കീയ": 10052,
      "കൗണ്ടി": 10053,
      "വിദ്യാലയ": 10054,
      "##ാലോ": 10055,
      "##ാടന": 10056,
      "ശത്രു": 10057,
      "നിരൂപ": 10058,
      "തകര": 10059,
      "ആസി": 10060,
      "##ാങ്ക്": 10061,
      "##ിക്കുള്ള": 10062,
      "##ർജി": 10063,
      "സ്പെ": 10064,
      "##സങ്ക": 10065,
      "##തുമാണ്": 10066,
      "##ലിസ്റ്റ്": 10067,
      "1970": 10068,
      "തെരഞ്ഞെടുക്ക": 10069,
      "##ുകളായി": 10070,
      "##ഡ്ജ": 10071,
      "##െടുത്ത്": 10072,
      "മാനേജ": 10073,
      "പ്രതിനിധീകര": 10074,
      "##യുടേയും": 10075,
      "നീക്കം": 10076,
      "അർത്ഥം": 10077,
      "അഫ്ഗാനി": 10078,
      "##ജീവി": 10079,
      "ഉള്ളത്": 10080,
      "അടങ്ങിയ": 10081,
      "##ാദേശ": 10082,
      "##ങ്ങും": 10083,
      "വിപുല": 10084,
      "##നുമായിരുന്നു": 10085,
      "ചെയ്തിട്ടുണ്ട്": 10086,
      "##ികമായ": 10087,
      "##കളായ": 10088,
      "വ്യാപകമായി": 10089,
      "##ാക്കോ": 10090,
      "വേട്ട": 10091,
      "##ിട്ടുള്ള": 10092,
      "പ്രാവ": 10093,
      "##ട്സ്": 10094,
      "##തിനുശേഷം": 10095,
      "ഹരി": 10096,
      "##93": 10097,
      "##ുമായിരുന്നു": 10098,
      "വൃക്ക": 10099,
      "ഗാനങ്ങൾ": 10100,
      "മകനായി": 10101,
      "പാവ": 10102,
      "മീന": 10103,
      "##ാശി": 10104,
      "##മെന്നു": 10105,
      "ജലം": 10106,
      "##55": 10107,
      "##ര്‍ണ": 10108,
      "##വായ": 10109,
      "##ക്കളിൽ": 10110,
      "സ്ത്രീകളും": 10111,
      "##സുകൾ": 10112,
      "അതിര": 10113,
      "##26": 10114,
      "##ക്കാരും": 10115,
      "യൂണിയൻ": 10116,
      "##ുകയാണ": 10117,
      "അവര": 10118,
      "##ുവർഷ": 10119,
      "##മുട": 10120,
      "##ഗാമ": 10121,
      "ഇന്റർന": 10122,
      "##മംഗ": 10123,
      "##ോത്സ": 10124,
      "##ൈസ്": 10125,
      "##്മെന്റ്": 10126,
      "കിരീ": 10127,
      "##ുവര": 10128,
      "##ക്കെതിരെ": 10129,
      "സ്വർണ്ണ": 10130,
      "##പ്പാട": 10131,
      "തുടങ്ങിയത്": 10132,
      "വർധ": 10133,
      "റൊ": 10134,
      "ഏഷ്യൻ": 10135,
      "മാൻ": 10136,
      "ശസ്ത്ര": 10137,
[...]
